{
  "version": "1.0",
  "truncation": null,
  "padding": null,
  "added_tokens": [
    {
      "id": 0,
      "content": "<s>",
      "single_word": false,
      "lstrip": false,
      "rstrip": false,
      "normalized": false,
      "special": true
    },
    {
      "id": 1,
      "content": "<pad>",
      "single_word": false,
      "lstrip": false,
      "rstrip": false,
      "normalized": false,
      "special": true
    },
    {
      "id": 2,
      "content": "</s>",
      "single_word": false,
      "lstrip": false,
      "rstrip": false,
      "normalized": false,
      "special": true
    },
    {
      "id": 3,
      "content": "<unk>",
      "single_word": false,
      "lstrip": false,
      "rstrip": false,
      "normalized": false,
      "special": true
    },
    {
      "id": 4,
      "content": "<mask>",
      "single_word": false,
      "lstrip": true,
      "rstrip": false,
      "normalized": false,
      "special": true
    }
  ],
  "normalizer": {
    "type": "Sequence",
    "normalizers": [
      {
        "type": "Replace",
        "pattern": {
          "Regex": "g[ʻ'’`´]"
        },
        "content": "g‘"
      },
      {
        "type": "Replace",
        "pattern": {
          "Regex": "o[ʻ'’`´]"
        },
        "content": "o‘"
      },
      {
        "type": "Replace",
        "pattern": {
          "Regex": "G[ʻ'’`´]"
        },
        "content": "G‘"
      },
      {
        "type": "Replace",
        "pattern": {
          "Regex": "O[ʻ'’`´]"
        },
        "content": "O‘"
      },
      {
        "type": "Replace",
        "pattern": {
          "Regex": "(?<=\\w)[ʼ'`´](?=\\w)"
        },
        "content": "’"
      },
      {
        "type": "Replace",
        "pattern": {
          "Regex": " {2,}"
        },
        "content": " "
      },
      {
        "type": "NFKC"
      },
      {
        "type": "StripAccents"
      }
    ]
  },
  "pre_tokenizer": {
    "type": "ByteLevel",
    "add_prefix_space": false,
    "trim_offsets": true,
    "use_regex": true
  },
  "post_processor": {
    "type": "RobertaProcessing",
    "sep": [
      "</s>",
      2
    ],
    "cls": [
      "<s>",
      0
    ],
    "trim_offsets": true,
    "add_prefix_space": false
  },
  "decoder": {
    "type": "ByteLevel",
    "add_prefix_space": true,
    "trim_offsets": true,
    "use_regex": true
  },
  "model": {
    "type": "BPE",
    "dropout": null,
    "unk_token": null,
    "continuing_subword_prefix": "",
    "end_of_word_suffix": "",
    "fuse_unk": false,
    "byte_fallback": false,
    "vocab": {
      "<s>": 0,
      "<pad>": 1,
      "</s>": 2,
      "<unk>": 3,
      "<mask>": 4,
      "!": 5,
      "\"": 6,
      "#": 7,
      "$": 8,
      "%": 9,
      "&": 10,
      "'": 11,
      "(": 12,
      ")": 13,
      "*": 14,
      "+": 15,
      ",": 16,
      "-": 17,
      ".": 18,
      "/": 19,
      "0": 20,
      "1": 21,
      "2": 22,
      "3": 23,
      "4": 24,
      "5": 25,
      "6": 26,
      "7": 27,
      "8": 28,
      "9": 29,
      ":": 30,
      ";": 31,
      "<": 32,
      "=": 33,
      ">": 34,
      "?": 35,
      "@": 36,
      "A": 37,
      "B": 38,
      "C": 39,
      "D": 40,
      "E": 41,
      "F": 42,
      "G": 43,
      "H": 44,
      "I": 45,
      "J": 46,
      "K": 47,
      "L": 48,
      "M": 49,
      "N": 50,
      "O": 51,
      "P": 52,
      "Q": 53,
      "R": 54,
      "S": 55,
      "T": 56,
      "U": 57,
      "V": 58,
      "W": 59,
      "X": 60,
      "Y": 61,
      "Z": 62,
      "[": 63,
      "\\": 64,
      "]": 65,
      "^": 66,
      "_": 67,
      "`": 68,
      "a": 69,
      "b": 70,
      "c": 71,
      "d": 72,
      "e": 73,
      "f": 74,
      "g": 75,
      "h": 76,
      "i": 77,
      "j": 78,
      "k": 79,
      "l": 80,
      "m": 81,
      "n": 82,
      "o": 83,
      "p": 84,
      "q": 85,
      "r": 86,
      "s": 87,
      "t": 88,
      "u": 89,
      "v": 90,
      "w": 91,
      "x": 92,
      "y": 93,
      "z": 94,
      "{": 95,
      "|": 96,
      "}": 97,
      "~": 98,
      "¡": 99,
      "¢": 100,
      "£": 101,
      "¤": 102,
      "¥": 103,
      "¦": 104,
      "§": 105,
      "¨": 106,
      "©": 107,
      "ª": 108,
      "«": 109,
      "¬": 110,
      "®": 111,
      "¯": 112,
      "°": 113,
      "±": 114,
      "²": 115,
      "³": 116,
      "´": 117,
      "µ": 118,
      "¶": 119,
      "·": 120,
      "¸": 121,
      "¹": 122,
      "º": 123,
      "»": 124,
      "¼": 125,
      "½": 126,
      "¾": 127,
      "¿": 128,
      "À": 129,
      "Á": 130,
      "Â": 131,
      "Ã": 132,
      "Ä": 133,
      "Å": 134,
      "Æ": 135,
      "Ç": 136,
      "È": 137,
      "É": 138,
      "Ê": 139,
      "Ë": 140,
      "Ì": 141,
      "Í": 142,
      "Î": 143,
      "Ï": 144,
      "Ð": 145,
      "Ñ": 146,
      "Ò": 147,
      "Ó": 148,
      "Ô": 149,
      "Õ": 150,
      "Ö": 151,
      "×": 152,
      "Ø": 153,
      "Ù": 154,
      "Ú": 155,
      "Û": 156,
      "Ü": 157,
      "Ý": 158,
      "Þ": 159,
      "ß": 160,
      "à": 161,
      "á": 162,
      "â": 163,
      "ã": 164,
      "ä": 165,
      "å": 166,
      "æ": 167,
      "ç": 168,
      "è": 169,
      "é": 170,
      "ê": 171,
      "ë": 172,
      "ì": 173,
      "í": 174,
      "î": 175,
      "ï": 176,
      "ð": 177,
      "ñ": 178,
      "ò": 179,
      "ó": 180,
      "ô": 181,
      "õ": 182,
      "ö": 183,
      "÷": 184,
      "ø": 185,
      "ù": 186,
      "ú": 187,
      "û": 188,
      "ü": 189,
      "ý": 190,
      "þ": 191,
      "ÿ": 192,
      "Ā": 193,
      "ā": 194,
      "Ă": 195,
      "ă": 196,
      "Ą": 197,
      "ą": 198,
      "Ć": 199,
      "ć": 200,
      "Ĉ": 201,
      "ĉ": 202,
      "Ċ": 203,
      "ċ": 204,
      "Č": 205,
      "č": 206,
      "Ď": 207,
      "ď": 208,
      "Đ": 209,
      "đ": 210,
      "Ē": 211,
      "ē": 212,
      "Ĕ": 213,
      "ĕ": 214,
      "Ė": 215,
      "ė": 216,
      "Ę": 217,
      "ę": 218,
      "Ě": 219,
      "ě": 220,
      "Ĝ": 221,
      "ĝ": 222,
      "Ğ": 223,
      "ğ": 224,
      "Ġ": 225,
      "ġ": 226,
      "Ģ": 227,
      "ģ": 228,
      "Ĥ": 229,
      "ĥ": 230,
      "Ħ": 231,
      "ħ": 232,
      "Ĩ": 233,
      "ĩ": 234,
      "Ī": 235,
      "ī": 236,
      "Ĭ": 237,
      "ĭ": 238,
      "Į": 239,
      "į": 240,
      "İ": 241,
      "ı": 242,
      "Ĳ": 243,
      "ĳ": 244,
      "Ĵ": 245,
      "ĵ": 246,
      "Ķ": 247,
      "ķ": 248,
      "ĸ": 249,
      "Ĺ": 250,
      "ĺ": 251,
      "Ļ": 252,
      "ļ": 253,
      "Ľ": 254,
      "ľ": 255,
      "Ŀ": 256,
      "ŀ": 257,
      "Ł": 258,
      "ł": 259,
      "Ń": 260,
      "la": 261,
      "âĢ": 262,
      "sh": 263,
      "âĢĺ": 264,
      "ni": 265,
      "da": 266,
      "ga": 267,
      "ri": 268,
      "li": 269,
      "Ġb": 270,
      "di": 271,
      "Ġt": 272,
      "ch": 273,
      "ma": 274,
      "ti": 275,
      "si": 276,
      "Ġo": 277,
      "lar": 278,
      "ng": 279,
      "Ġk": 280,
      "ar": 281,
      "Ġq": 282,
      "Ġy": 283,
      "ra": 284,
      "gan": 285,
      "Ġbo": 286,
      "ning": 287,
      "on": 288,
      "Ġh": 289,
      "Ġa": 290,
      "va": 291,
      "lari": 292,
      "at": 293,
      "Ġi": 294,
      "gi": 295,
      "Ġu": 296,
      "Ġs": 297,
      "mi": 298,
      "shi": 299,
      "Ġva": 300,
      "Ġe": 301,
      "ki": 302,
      "chi": 303,
      "ta": 304,
      "ya": 305,
      "na": 306,
      "Ġbi": 307,
      "Ġm": 308,
      "Ġta": 309,
      "dan": 310,
      "zi": 311,
      "Ġma": 312,
      "or": 313,
      "un": 314,
      "sa": 315,
      "lik": 316,
      "lo": 317,
      "lan": 318,
      "Ġqi": 319,
      "ï¿": 320,
      "ï¿½": 321,
      "âĢĻ": 322,
      "am": 323,
      "ur": 324,
      "cha": 325,
      "ka": 326,
      "Ġko": 327,
      "ï¿½ï¿½": 328,
      "qi": 329,
      "Ġx": 330,
      "yi": 331,
      "yo": 332,
      "mo": 333,
      "Ġto": 334,
      "ro": 335,
      "Ġke": 336,
      "Ġsh": 337,
      "Ġyo": 338,
      "âĢĶ": 339,
      "lgan": 340,
      "Ġj": 341,
      "de": 342,
      "Ġf": 343,
      "Ġqo": 344,
      "Ġp": 345,
      "ĠB": 346,
      "qa": 347,
      "ladi": 348,
      "Ġ1": 349,
      "bi": 350,
      "Ġmu": 351,
      "er": 352,
      "st": 353,
      "ĠS": 354,
      "lash": 355,
      "Ġ(": 356,
      "vo": 357,
      "no": 358,
      "ara": 359,
      "ĠA": 360,
      "ĠM": 361,
      "so": 362,
      "rish": 363,
      "uv": 364,
      "Ġso": 365,
      "dagi": 366,
      "Ġtu": 367,
      "ay": 368,
      "en": 369,
      "Ġda": 370,
      "al": 371,
      "lib": 372,
      "an": 373,
      "Ġbilan": 374,
      "Ġham": 375,
      "ligi": 376,
      "ĠO": 377,
      "do": 378,
      "Ġ2": 379,
      "Ġbir": 380,
      "ldi": 381,
      "Ġbe": 382,
      "Ġya": 383,
      "ul": 384,
      "ĠT": 385,
      "ĠâĢĶ": 386,
      "larni": 387,
      "vi": 388,
      "Ġbu": 389,
      "lish": 390,
      "Ġde": 391,
      "lab": 392,
      "za": 393,
      "Ġuch": 394,
      "Ġish": 395,
      "ek": 396,
      "larning": 397,
      "ï¿½ï¿½ï¿½ï¿½": 398,
      "to": 399,
      "Ġki": 400,
      "Ġg": 401,
      "Ġna": 402,
      "siya": 403,
      "ĠK": 404,
      "ja": 405,
      "Ġsi": 406,
      "ĠU": 407,
      "uq": 408,
      "Ġho": 409,
      "il": 410,
      "Â«": 411,
      "yat": 412,
      "Ġsa": 413,
      "Ġchi": 414,
      "Ġha": 415,
      "bo": 416,
      "Ġn": 417,
      "lani": 418,
      "Ð¸": 419,
      "Ġte": 420,
      "Ġbosh": 421,
      "re": 422,
      "lma": 423,
      "Ġuchun": 424,
      "Â»": 425,
      "zo": 426,
      "kin": 427,
      "ĠI": 428,
      "tish": 429,
      "ĠÂ«": 430,
      "larini": 431,
      "iz": 432,
      "lishi": 433,
      "ydi": 434,
      "rib": 435,
      "ĠâĢ": 436,
      "hi": 437,
      "Ġba": 438,
      "Ġyu": 439,
      "et": 440,
      "Ġch": 441,
      "sida": 442,
      "oy": 443,
      "ĠQ": 444,
      "uvchi": 445,
      "Ġmi": 446,
      "ĠY": 447,
      "fa": 448,
      "aro": 449,
      "__": 450,
      "lat": 451,
      "Ġku": 452,
      "ĠR": 453,
      "Ġti": 454,
      "yot": 455,
      "miz": 456,
      "..": 457,
      "ona": 458,
      "ba": 459,
      "larga": 460,
      "tib": 461,
      "um": 462,
      "ha": 463,
      "Ġsha": 464,
      "gani": 465,
      "Ġra": 466,
      "Ġka": 467,
      "ud": 468,
      "ho": 469,
      "ir": 470,
      "us": 471,
      "ĠÐ": 472,
      "ko": 473,
      "Ġqa": 474,
      "nadi": 475,
      "rat": 476,
      "Ġtash": 477,
      "ĠH": 478,
      "00": 479,
      "Ġmo": 480,
      "dir": 481,
      "Ġtar": 482,
      "fi": 483,
      "Ġay": 484,
      "day": 485,
      "ĠBu": 486,
      "Ġhi": 487,
      "ĠN": 488,
      "sti": 489,
      "Ġin": 490,
      "Ġxo": 491,
      "Ġ3": 492,
      "larda": 493,
      "sha": 494,
      "ub": 495,
      "ĠD": 496,
      "Ġme": 497,
      "radi": 498,
      "man": 499,
      "langan": 500,
      "pi": 501,
      "Ġfa": 502,
      "tirish": 503,
      "ĠP": 504,
      "ĠX": 505,
      "Ġqu": 506,
      "te": 507,
      "ston": 508,
      "Ġor": 509,
      "mu": 510,
      "Ġtur": 511,
      "mon": 512,
      "Ġ4": 513,
      "zb": 514,
      "es": 515,
      "qo": 516,
      "iy": 517,
      "moq": 518,
      "yati": 519,
      "siz": 520,
      "ĠMa": 521,
      "ĠSh": 522,
      "Ġni": 523,
      "Ġaso": 524,
      "ngi": 525,
      "Ġshu": 526,
      "rin": 527,
      "Ġz": 528,
      "Ġga": 529,
      "mat": 530,
      "rak": 531,
      "lim": 532,
      "mas": 533,
      "Ð°": 534,
      "Ġdav": 535,
      "bat": 536,
      "le": 537,
      "Ġja": 538,
      "lin": 539,
      "sini": 540,
      "lanadi": 541,
      "ĠV": 542,
      "ĠE": 543,
      "ent": 544,
      "kat": 545,
      "ĠG": 546,
      "Ġdo": 547,
      "eki": 548,
      "Ġ5": 549,
      "Ġno": 550,
      "âĢĿ": 551,
      "Ð½": 552,
      "Ġedi": 553,
      "lga": 554,
      "ĠF": 555,
      "ĠâĢĵ": 556,
      "ru": 557,
      "yu": 558,
      "Ġqilish": 559,
      "lsa": 560,
      "Ġd": 561,
      "lariga": 562,
      "zbeki": 563,
      "gar": 564,
      "lu": 565,
      "Ġyoki": 566,
      "liq": 567,
      "lardan": 568,
      "liy": 569,
      "ori": 570,
      "siy": 571,
      "yin": 572,
      "Ġmum": 573,
      "Ġboshqa": 574,
      "sta": 575,
      "Ġhiso": 576,
      "dam": 577,
      "bu": 578,
      "pa": 579,
      "zbekiston": 580,
      "roq": 581,
      "Ġmumkin": 582,
      "ï¿½ï¿½ï¿½ï¿½ï¿½ï¿½ï¿½ï¿½": 583,
      "Ġre": 584,
      "ÑĤ": 585,
      "Ġye": 586,
      "rta": 587,
      "miy": 588,
      "ĠJ": 589,
      "larining": 590,
      "Ġ-": 591,
      "ĠC": 592,
      "ol": 593,
      "niq": 594,
      "Ġqay": 595,
      "Ġdeb": 596,
      "Ġun": 597,
      "Ġv": 598,
      "Ġik": 599,
      "rilgan": 600,
      "viy": 601,
      "masi": 602,
      "Ġbor": 603,
      "ĠâĢľ": 604,
      "Ġuning": 605,
      "____": 606,
      "Ġji": 607,
      "lanish": 608,
      "dda": 609,
      "Ġhar": 610,
      "diy": 611,
      "niy": 612,
      "oli": 613,
      "son": 614,
      "Ġsu": 615,
      "Ġ=": 616,
      "larida": 617,
      "tgan": 618,
      "tida": 619,
      "Ġ\"": 620,
      "Ð»": 621,
      "dim": 622,
      "yil": 623,
      "yotgan": 624,
      "tilgan": 625,
      "Ġama": 626,
      "fo": 627,
      "Ġas": 628,
      "qat": 629,
      "Ġtashki": 630,
      "lov": 631,
      "Ġqara": 632,
      "ekt": 633,
      "Ġxa": 634,
      "unday": 635,
      "tadi": 636,
      "kazi": 637,
      "kan": 638,
      "dor": 639,
      "siga": 640,
      "lika": 641,
      "tir": 642,
      "yicha": 643,
      "Ġri": 644,
      "Ġhu": 645,
      "zir": 646,
      "pub": 647,
      "Ġega": 648,
      "Ġdi": 649,
      "logi": 650,
      "oyda": 651,
      "Ġ19": 652,
      "Ġhisob": 653,
      "su": 654,
      "Ġyil": 655,
      "ligini": 656,
      "publika": 657,
      "zim": 658,
      "Ġbar": 659,
      "Ġoshi": 660,
      "dek": 661,
      "Ġesa": 662,
      "sat": 663,
      "go": 664,
      "po": 665,
      "Ġyi": 666,
      "Ġqis": 667,
      "Ġij": 668,
      "ĠL": 669,
      "Ġ7": 670,
      "ji": 671,
      "moni": 672,
      "lda": 673,
      "ĠTo": 674,
      "biy": 675,
      "Ġber": 676,
      "Ġvo": 677,
      "Ġhaqi": 678,
      "lgi": 679,
      "Ġtush": 680,
      "Ġpo": 681,
      "Ġaniq": 682,
      "Ġ0": 683,
      "Ġolib": 684,
      "Ġ6": 685,
      "rishi": 686,
      "tlar": 687,
      "Ġfoyda": 688,
      "san": 689,
      "Ġbog": 690,
      "Ġkerak": 691,
      "Ġqan": 692,
      "sining": 693,
      "in": 694,
      "kor": 695,
      "ĠRes": 696,
      "sin": 697,
      "Ġcho": 698,
      "...": 699,
      "ev": 700,
      "Ġoldi": 701,
      "riladi": 702,
      "Ġkat": 703,
      "oro": 704,
      "ut": 705,
      ").": 706,
      "Ġqat": 707,
      "ngiz": 708,
      "Ġ20": 709,
      "ĠRespublika": 710,
      "ĠBo": 711,
      "Ġdavlat": 712,
      "xona": 713,
      "chilik": 714,
      "rini": 715,
      "Ġyer": 716,
      "qti": 717,
      "Ġqar": 718,
      "ku": 719,
      "qar": 720,
      "yor": 721,
      "Ġlo": 722,
      "Ġshak": 723,
      "lay": 724,
      "min": 725,
      "Ġne": 726,
      "Ġchiqi": 727,
      "lanishi": 728,
      "Ġet": 729,
      "riy": 730,
      "Ġmah": 731,
      "mati": 732,
      "Ġzar": 733,
      "Ġro": 734,
      "tiladi": 735,
      "Ġpa": 736,
      "uno": 737,
      "Ġrivo": 738,
      "Ġse": 739,
      "Ġqon": 740,
      "xs": 741,
      "Ġikki": 742,
      "ĠShu": 743,
      "alq": 744,
      "rik": 745,
      "zga": 746,
      "Ġim": 747,
      "sil": 748,
      "Ġfi": 749,
      "laridan": 750,
      "Ġtomoni": 751,
      "Ġjoy": 752,
      "Ġbelgi": 753,
      "20": 754,
      "Ġchiqa": 755,
      "Ġqilib": 756,
      "xi": 757,
      "rida": 758,
      "lini": 759,
      "mida": 760,
      "Ġan": 761,
      "),": 762,
      "bar": 763,
      "Ġemas": 764,
      "as": 765,
      "lot": 766,
      "Ġil": 767,
      "lam": 768,
      "Ġdara": 769,
      "Ġav": 770,
      "Ġman": 771,
      "laydi": 772,
      "Ġsuv": 773,
      "Ġkatta": 774,
      "sidagi": 775,
      "tini": 776,
      "Ġfaoli": 777,
      "Ġtashkil": 778,
      "Ġ8": 779,
      "Ġolish": 780,
      "Ġcha": 781,
      "Ġmav": 782,
      "Ñĭ": 783,
      "Ġkun": 784,
      "Ġhamda": 785,
      "bir": 786,
      "lingan": 787,
      "rim": 788,
      "ĠTa": 789,
      "Ġjara": 790,
      "ov": 791,
      "qin": 792,
      "xshi": 793,
      "Ġ9": 794,
      "Ġishlab": 795,
      "Ġpay": 796,
      "may": 797,
      "Ġhara": 798,
      "Ġrivoj": 799,
      "Ġshar": 800,
      "Ġetish": 801,
      "riga": 802,
      "Ġkel": 803,
      "ron": 804,
      "Ð´": 805,
      "ran": 806,
      "Ġuni": 807,
      "moqda": 808,
      "Ġyor": 809,
      "Ġmaq": 810,
      "zm": 811,
      "Ġxiz": 812,
      "Ġvi": 813,
      "ĠKo": 814,
      "nat": 815,
      "ĠÑ": 816,
      "Ġekan": 817,
      "yon": 818,
      "Ġqiladi": 819,
      "usu": 820,
      "dar": 821,
      "Ġorqa": 822,
      "niya": 823,
      "Ġis": 824,
      "lashtirish": 825,
      "Ġ.": 826,
      "Ð³": 827,
      "rsat": 828,
      "Ġodam": 829,
      "Ġtomonidan": 830,
      "ĠQo": 831,
      "sim": 832,
      "riya": 833,
      "Ġvaq": 834,
      "adi": 835,
      "av": 836,
      "ush": 837,
      "el": 838,
      "Ġvazi": 839,
      "har": 840,
      "lashi": 841,
      "Ġ10": 842,
      "xo": 843,
      "Ġquyi": 844,
      "tda": 845,
      "uqori": 846,
      "rsa": 847,
      "Ġamalga": 848,
      "mir": 849,
      "ĠRespublikasi": 850,
      "jat": 851,
      "tija": 852,
      "loq": 853,
      "ĠZ": 854,
      "Ġhuj": 855,
      "Ġshi": 856,
      "Ġdaraja": 857,
      "ort": 858,
      "timo": 859,
      "Ġnar": 860,
      "ÑĢ": 861,
      "Ġel": 862,
      "Ġmaqsa": 863,
      "Ġsho": 864,
      "Ġyaxshi": 865,
      "pe": 866,
      "ste": 867,
      "Ġpro": 868,
      "âĢĵ": 869,
      "Ġyet": 870,
      "jud": 871,
      "llar": 872,
      "Ġyana": 873,
      "du": 874,
      "Ġdar": 875,
      "ve": 876,
      "lumo": 877,
      "qtiso": 878,
      "Ġqanday": 879,
      "Ġyangi": 880,
      "Ġtalab": 881,
      "Ġmil": 882,
      "Ġaj": 883,
      "ĠNa": 884,
      "Ġza": 885,
      "ksiya": 886,
      "tu": 887,
      "10": 888,
      "tar": 889,
      "Ġdavo": 890,
      "Ġus": 891,
      "Ġmar": 892,
      "ndi": 893,
      "Ġju": 894,
      "bul": 895,
      "Ġkishi": 896,
      "Ġxalq": 897,
      "tkazi": 898,
      "Ġkon": 899,
      "Ġbola": 900,
      "Ġeng": 901,
      "qiy": 902,
      "me": 903,
      "Ġmuhi": 904,
      "Ġob": 905,
      "tdi": 906,
      "Ġalo": 907,
      "Ġmen": 908,
      "Ġholda": 909,
      "Ġsifa": 910,
      "gu": 911,
      "Ġar": 912,
      "tik": 913,
      "Ġharakat": 914,
      "ĠSa": 915,
      "Ġularning": 916,
      "Ð¼": 917,
      "________": 918,
      "nga": 919,
      "19": 920,
      "mla": 921,
      "shbu": 922,
      "ks": 923,
      "nida": 924,
      "Ġtay": 925,
      "maydi": 926,
      "Ġer": 927,
      "ech": 928,
      "Ġxizmat": 929,
      "Ð¾": 930,
      "Ġnatija": 931,
      "lmaydi": 932,
      "Ġora": 933,
      "Ġkuch": 934,
      "Ġhosil": 935,
      "Ġog": 936,
      "rinchi": 937,
      "ĠYa": 938,
      "Ġbarcha": 939,
      "AR": 940,
      "xa": 941,
      "uncha": 942,
      "lanib": 943,
      "Ġasosiy": 944,
      "shda": 945,
      "Ġteng": 946,
      "sm": 947,
      "uh": 948,
      "Ġjo": 949,
      "tin": 950,
      "linadi": 951,
      "Ġmeh": 952,
      "kr": 953,
      "Ġkom": 954,
      "var": 955,
      "tishi": 956,
      "tiq": 957,
      "lida": 958,
      "zu": 959,
      "Ġtop": 960,
      "sita": 961,
      "Ġxusu": 962,
      "Ġtayyor": 963,
      "miyat": 964,
      "Ġmasa": 965,
      "Ġhuq": 966,
      "amo": 967,
      "Ġnima": 968,
      "unda": 969,
      "Ġchiq": 970,
      "Ġmiq": 971,
      "shga": 972,
      "Ġyuqori": 973,
      "Ġtas": 974,
      "lmagan": 975,
      "Ġquyidagi": 976,
      "Ġular": 977,
      "Ġuy": 978,
      "Ġmay": 979,
      "Ġkabi": 980,
      "lum": 981,
      "Ġqil": 982,
      "Ġtex": 983,
      "Ġkeyin": 984,
      "ter": 985,
      "Ġtan": 986,
      "Ġ{": 987,
      "ish": 988,
      "sidan": 989,
      "Ġpar": 990,
      "layotgan": 991,
      "lashti": 992,
      "se": 993,
      "logiya": 994,
      "Ġmuno": 995,
      "ÑĪ": 996,
      "lagan": 997,
      "Ġgap": 998,
      "Ġtez": 999,
      "Ġr": 1000,
      "ĠSo": 1001,
      "lama": 1002,
      "don": 1003,
      "Ġtad": 1004,
      "ladigan": 1005,
      "im": 1006,
      "Ġshakl": 1007,
      "Ġtaq": 1008,
      "Ġkam": 1009,
      "ziga": 1010,
      "mini": 1011,
      "hat": 1012,
      "Ġhaqida": 1013,
      "den": 1014,
      "Ġorqali": 1015,
      "lovchi": 1016,
      "sho": 1017,
      "Ġichi": 1018,
      "lantirish": 1019,
      "vat": 1020,
      "Ġal": 1021,
      "Ġtuzi": 1022,
      "ĠBi": 1023,
      "nini": 1024,
      "sal": 1025,
      "sir": 1026,
      "tiga": 1027,
      "Ġkelib": 1028,
      "Ġuz": 1029,
      "Ġfar": 1030,
      "ĠYo": 1031,
      "Ġsaba": 1032,
      "Ġfaoliyati": 1033,
      "unyo": 1034,
      "Ġkim": 1035,
      "Ġtari": 1036,
      "kam": 1037,
      "Ġnis": 1038,
      "Ð²": 1039,
      "xta": 1040,
      "timoiy": 1041,
      "logik": 1042,
      "tiv": 1043,
      "os": 1044,
      "shk": 1045,
      "Ġkor": 1046,
      "Ġsoha": 1047,
      "Ġibo": 1048,
      "tiro": 1049,
      "din": 1050,
      "SH": 1051,
      "Ġturli": 1052,
      "Ġax": 1053,
      "Ġdast": 1054,
      "Ġol": 1055,
      "Ġsaq": 1056,
      "kur": 1057,
      "zar": 1058,
      "ĠHa": 1059,
      "Ġberish": 1060,
      "Ġasos": 1061,
      "Ġjuda": 1062,
      "Ġdegan": 1063,
      "Ġshaxs": 1064,
      "Ġmamla": 1065,
      "Ġberadi": 1066,
      "Ġqoldi": 1067,
      "sion": 1068,
      "nik": 1069,
      "Ġshart": 1070,
      "ye": 1071,
      "kinchi": 1072,
      "ida": 1073,
      "Ġmusta": 1074,
      "yib": 1075,
      "Â»,": 1076,
      "12": 1077,
      "Ġnarsa": 1078,
      "niga": 1079,
      "Ġxil": 1080,
      "is": 1081,
      "port": 1082,
      "lmas": 1083,
      "Ġyara": 1084,
      "Ġyosh": 1085,
      "Ġ12": 1086,
      "Ġmak": 1087,
      "gina": 1088,
      "Ġmavjud": 1089,
      "Ġtarki": 1090,
      "magan": 1091,
      "zini": 1092,
      "ziq": 1093,
      "Ġsifatida": 1094,
      "Ġajra": 1095,
      "rgan": 1096,
      "Ġtah": 1097,
      "Ġqabul": 1098,
      "tab": 1099,
      "zlar": 1100,
      "ĠBa": 1101,
      "tining": 1102,
      "Ġc": 1103,
      "Ġmunosa": 1104,
      "Ġiqtiso": 1105,
      "liya": 1106,
      "qan": 1107,
      "rilishi": 1108,
      "Ġbiri": 1109,
      "Ġmasala": 1110,
      "gra": 1111,
      "ĠVa": 1112,
      "Ġmas": 1113,
      "Ġholat": 1114,
      "Ġmahsu": 1115,
      "rgani": 1116,
      "Ġqildi": 1117,
      "Ġshunday": 1118,
      "vob": 1119,
      "Ġinson": 1120,
      "âĢľ": 1121,
      "undan": 1122,
      "liga": 1123,
      "Ġbiz": 1124,
      "ningdek": 1125,
      "ĠĊ": 1126,
      "tal": 1127,
      "mad": 1128,
      "shkent": 1129,
      "Ġsabab": 1130,
      "Ġzi": 1131,
      ".,": 1132,
      "Ġqilgan": 1133,
      "von": 1134,
      "lumot": 1135,
      "Ġumu": 1136,
      "Ġtomon": 1137,
      "quv": 1138,
      "Ġgo": 1139,
      "tro": 1140,
      "Ġfo": 1141,
      "ĠCh": 1142,
      "Ð½Ð¸": 1143,
      "Ġbirinchi": 1144,
      "Ġmaj": 1145,
      "lashgan": 1146,
      "liklar": 1147,
      "jon": 1148,
      "foda": 1149,
      "Ġeti": 1150,
      "Ġqayta": 1151,
      "noma": 1152,
      "ï¿½ï¿½ï¿½ï¿½ï¿½ï¿½ï¿½ï¿½ï¿½ï¿½ï¿½ï¿½ï¿½ï¿½ï¿½ï¿½": 1153,
      "proq": 1154,
      "Ġvilo": 1155,
      "Ġ15": 1156,
      "Ġkiri": 1157,
      "Ġtizi": 1158,
      "val": 1159,
      "yoq": 1160,
      "Ġijtimoiy": 1161,
      "tob": 1162,
      "xon": 1163,
      "Ġxos": 1164,
      "mmo": 1165,
      "yan": 1166,
      "Ġyuza": 1167,
      "lom": 1168,
      "11": 1169,
      "Ġvazifa": 1170,
      "Ġban": 1171,
      "ment": 1172,
      "lgani": 1173,
      "Ġoshirish": 1174,
      "Ġifoda": 1175,
      "Ġoi": 1176,
      "niyat": 1177,
      "Ġelekt": 1178,
      "rab": 1179,
      "Ġochi": 1180,
      "Ġyig": 1181,
      "ardi": 1182,
      "Ġru": 1183,
      "Ġ200": 1184,
      "Ġvosita": 1185,
      "likni": 1186,
      "zor": 1187,
      "it": 1188,
      "Ġnisbat": 1189,
      "Ġla": 1190,
      "likka": 1191,
      "Ġhujjat": 1192,
      "atsiya": 1193,
      "ver": 1194,
      "tor": 1195,
      "riq": 1196,
      "kaz": 1197,
      "lek": 1198,
      "qil": 1199,
      "boro": 1200,
      "Ġunga": 1201,
      "Ġqiy": 1202,
      "ddiy": 1203,
      "zgar": 1204,
      "Ġich": 1205,
      "tun": 1206,
      "rga": 1207,
      "Ġhay": 1208,
      "Ġiborat": 1209,
      "fat": 1210,
      "Ġbos": 1211,
      "shib": 1212,
      "Ġhech": 1213,
      "Ġmuvo": 1214,
      "Ġgur": 1215,
      "Ġjarayo": 1216,
      "Ġqonun": 1217,
      "Ġqarshi": 1218,
      "likda": 1219,
      "Ġgi": 1220,
      "Ġnuq": 1221,
      "Ġtabi": 1222,
      "Ġetadi": 1223,
      "jo": 1224,
      "em": 1225,
      "zbek": 1226,
      "Ġbaja": 1227,
      "teri": 1228,
      "Ġhud": 1229,
      "Ġsar": 1230,
      "ĠMu": 1231,
      "Ġlozim": 1232,
      "Ð·": 1233,
      "Ġasosida": 1234,
      "Ġdunyo": 1235,
      "tirib": 1236,
      "Ġmuhim": 1237,
      "Ġmamlakat": 1238,
      "mar": 1239,
      "ring": 1240,
      "risida": 1241,
      "rit": 1242,
      "yoti": 1243,
      "Ġyozi": 1244,
      "shim": 1245,
      "Ġyur": 1246,
      "Ġyoz": 1247,
      "Ġyaqin": 1248,
      "15": 1249,
      "Ġtopi": 1250,
      "sto": 1251,
      "mil": 1252,
      "Ġqilingan": 1253,
      "kim": 1254,
      "Ġimko": 1255,
      "biya": 1256,
      "tan": 1257,
      "tsiya": 1258,
      "gacha": 1259,
      "ke": 1260,
      "Ġfaqat": 1261,
      "Ġada": 1262,
      "Ġming": 1263,
      "hida": 1264,
      "ĠAgar": 1265,
      "Ġbirga": 1266,
      "Ġdoi": 1267,
      "22": 1268,
      "ĠBir": 1269,
      "Ġeshi": 1270,
      "ne": 1271,
      "Ġusti": 1272,
      "Ġtara": 1273,
      "18": 1274,
      "oq": 1275,
      "Ġnisbatan": 1276,
      "br": 1277,
      "landi": 1278,
      "nish": 1279,
      "Ġolgan": 1280,
      "Ġli": 1281,
      "Ġjavob": 1282,
      "Ġkelgan": 1283,
      "borot": 1284,
      "Ġasar": 1285,
      "Ġhisoblanadi": 1286,
      "Ġfoydalanish": 1287,
      "Ġvaqt": 1288,
      "mak": 1289,
      "kli": 1290,
      "Ġtil": 1291,
      "fiq": 1292,
      "Ð±": 1293,
      "ĠMe": 1294,
      "shli": 1295,
      "uvi": 1296,
      "zan": 1297,
      "Ġvazir": 1298,
      "ĠXo": 1299,
      "Ð¹": 1300,
      "Ġusul": 1301,
      "Ġshahar": 1302,
      "Ġpe": 1303,
      "yish": 1304,
      "Ġijo": 1305,
      "Ġ18": 1306,
      "ĠLe": 1307,
      "Ġiz": 1308,
      "chik": 1309,
      "Ġmaz": 1310,
      "uz": 1311,
      "Ġmunosabat": 1312,
      "uro": 1313,
      "ĠKa": 1314,
      "Ġkeng": 1315,
      "Sh": 1316,
      "IN": 1317,
      "Ġrah": 1318,
      "Ġtashqa": 1319,
      "loh": 1320,
      "tasi": 1321,
      "mani": 1322,
      "Ġikkinchi": 1323,
      "Ġxara": 1324,
      "Ġbal": 1325,
      "nal": 1326,
      "Ġ14": 1327,
      "zoq": 1328,
      "Ġushbu": 1329,
      "ziden": 1330,
      "Ġmash": 1331,
      "ĠKe": 1332,
      "ug": 1333,
      "ura": 1334,
      "Ġï": 1335,
      "Ġsharo": 1336,
      "shini": 1337,
      "Ġqismi": 1338,
      "Ġak": 1339,
      "lati": 1340,
      "lg": 1341,
      "Ġmahsulot": 1342,
      "Ġumumiy": 1343,
      "yap": 1344,
      "Ġkuni": 1345,
      "Ġot": 1346,
      "Ġoqi": 1347,
      "lak": 1348,
      "Ġ13": 1349,
      "dida": 1350,
      "rasm": 1351,
      "uqaro": 1352,
      "Ð¿": 1353,
      "Ġ,": 1354,
      "zlari": 1355,
      "Ġqolgan": 1356,
      "Ġularni": 1357,
      "sib": 1358,
      "llari": 1359,
      "malar": 1360,
      "hon": 1361,
      "Ġyuk": 1362,
      "Ġzarur": 1363,
      "rov": 1364,
      "reziden": 1365,
      "om": 1366,
      "Ġtug": 1367,
      "Ġkeladi": 1368,
      "rdi": 1369,
      "Ġqur": 1370,
      "Ġen": 1371,
      "Ġtarkibi": 1372,
      "Ġtartib": 1373,
      "Ġmuvofiq": 1374,
      "Ġkasal": 1375,
      "Ġtor": 1376,
      "Ġfikr": 1377,
      "qon": 1378,
      "dro": 1379,
      "Ġmodda": 1380,
      "unki": 1381,
      "Ġxat": 1382,
      "Ġjarayon": 1383,
      "tuvchi": 1384,
      "Ġche": 1385,
      "Ġkorxona": 1386,
      "Ġle": 1387,
      "ĠIn": 1388,
      "14": 1389,
      "Ġilmiy": 1390,
      "Ġbaho": 1391,
      "IY": 1392,
      "ton": 1393,
      "Ġfor": 1394,
      "ĠMen": 1395,
      "Ġmiqdo": 1396,
      "Ġmaqsad": 1397,
      "mal": 1398,
      "Ġara": 1399,
      "quvchi": 1400,
      "Ġfun": 1401,
      "unga": 1402,
      "Ġsin": 1403,
      "mish": 1404,
      "ts": 1405,
      "Ġbuy": 1406,
      "ĠHo": 1407,
      "Ġmehnat": 1408,
      "zaro": 1409,
      "Ġzam": 1410,
      "Ġmudda": 1411,
      "ĠDe": 1412,
      "yiha": 1413,
      "Ġhamma": 1414,
      "Ġmilliy": 1415,
      "lmay": 1416,
      "ligiga": 1417,
      "lang": 1418,
      "xt": 1419,
      "kka": 1420,
      "far": 1421,
      "Ġmada": 1422,
      "bur": 1423,
      "par": 1424,
      "lig": 1425,
      "Ġnuqta": 1426,
      "Ġbur": 1427,
      "17": 1428,
      "Ġsiyo": 1429,
      "Ġjamo": 1430,
      "lon": 1431,
      "Ġoy": 1432,
      "Ġqish": 1433,
      "Ġuchra": 1434,
      "zining": 1435,
      "Ġbutun": 1436,
      "siq": 1437,
      "Ġaho": 1438,
      "ratsiya": 1439,
      "xsus": 1440,
      "Ġishtiro": 1441,
      "Ð»Ð°": 1442,
      "Ġqarab": 1443,
      "dilar": 1444,
      "chan": 1445,
      "dosh": 1446,
      "ridan": 1447,
      "ĠToshkent": 1448,
      "zda": 1449,
      "Ġhozir": 1450,
      "rt": 1451,
      "Ñģ": 1452,
      "Ġyerda": 1453,
      "xti": 1454,
      "Ġpi": 1455,
      "dik": 1456,
      "Ġchiqarish": 1457,
      "tirilgan": 1458,
      "AN": 1459,
      "Ġaha": 1460,
      "lashga": 1461,
      "Ġzo": 1462,
      "Ġ16": 1463,
      "Ġnom": 1464,
      "Ñĥ": 1465,
      "Ġshe": 1466,
      "zon": 1467,
      "LAR": 1468,
      "Ġyuz": 1469,
      "shiga": 1470,
      "Ġ199": 1471,
      "rining": 1472,
      "Ġalohida": 1473,
      "Ġetilgan": 1474,
      "nim": 1475,
      "Ġeh": 1476,
      "tsi": 1477,
      "13": 1478,
      "Ġxabar": 1479,
      "Ġdavr": 1480,
      "oya": 1481,
      "Ġasr": 1482,
      "siyat": 1483,
      "Ma": 1484,
      "Ġsan": 1485,
      "ĠRa": 1486,
      "arli": 1487,
      "Ġdan": 1488,
      "ĠMah": 1489,
      "ĠJa": 1490,
      "Ġtegi": 1491,
      "Ġres": 1492,
      "mara": 1493,
      "diq": 1494,
      "giya": 1495,
      "salan": 1496,
      "Ġket": 1497,
      "eo": 1498,
      "Ġum": 1499,
      "Ġï¿½ï¿½ï¿½ï¿½": 1500,
      "Ġbora": 1501,
      "Ġorgan": 1502,
      "vor": 1503,
      "AT": 1504,
      "chilar": 1505,
      "he": 1506,
      "ĠTur": 1507,
      "Ġquri": 1508,
      "Ġboshqar": 1509,
      "ĠUning": 1510,
      "ski": 1511,
      "ĠMar": 1512,
      "Ġaxborot": 1513,
      "Ġï¿½ï¿½ï¿½ï¿½ï¿½ï¿½ï¿½ï¿½": 1514,
      "ĠQa": 1515,
      "Ġshuningdek": 1516,
      "moya": 1517,
      "Ġ/": 1518,
      "Ġyuri": 1519,
      "Ġmos": 1520,
      "Ġpaydo": 1521,
      "Ġtexno": 1522,
      "Ġtashqari": 1523,
      "Ġhuquq": 1524,
      "shni": 1525,
      "Ġturgan": 1526,
      "16": 1527,
      "Ġtarbiya": 1528,
      "Ġfuqaro": 1529,
      "Ġbunday": 1530,
      "ĠAb": 1531,
      "uk": 1532,
      "lag": 1533,
      "Ġberilgan": 1534,
      "LI": 1535,
      "tak": 1536,
      "Ġhaq": 1537,
      "Ġbay": 1538,
      "Ġolingan": 1539,
      "Ġtadbir": 1540,
      "Ġtek": 1541,
      "ĠAy": 1542,
      "Ġnecha": 1543,
      "Ġota": 1544,
      "avlat": 1545,
      "Ġturib": 1546,
      "uri": 1547,
      "ral": 1548,
      "ĠAl": 1549,
      "tga": 1550,
      "Ġkas": 1551,
      "Ġbosqi": 1552,
      "likning": 1553,
      "rg": 1554,
      "Ġmarta": 1555,
      "Ġst": 1556,
      "nov": 1557,
      "Ġmaxsus": 1558,
      "Ġkeldi": 1559,
      "Ġ17": 1560,
      "Ġshah": 1561,
      "Ġsamara": 1562,
      "Ġhayot": 1563,
      "Ġnazo": 1564,
      "Ġloyiha": 1565,
      "21": 1566,
      "Ġata": 1567,
      "Ġyordam": 1568,
      "modda": 1569,
      "Ġter": 1570,
      "Ġfaoliyat": 1571,
      "rans": 1572,
      "Ġtizimi": 1573,
      "ĠNi": 1574,
      "biyot": 1575,
      "Ðµ": 1576,
      "ÒĽ": 1577,
      "Ġhuqu": 1578,
      "dedi": 1579,
      "ss": 1580,
      "Ġxav": 1581,
      "Ġguruh": 1582,
      "Ġiqtisodiy": 1583,
      "ey": 1584,
      "qib": 1585,
      "ulo": 1586,
      "kon": 1587,
      "zal": 1588,
      "Ġravi": 1589,
      "Ġqaror": 1590,
      "vir": 1591,
      "Ġnaza": 1592,
      "umla": 1593,
      "mov": 1594,
      "Ġhaj": 1595,
      "zida": 1596,
      "ali": 1597,
      "ot": 1598,
      "bor": 1599,
      "ini": 1600,
      "Ġchiqib": 1601,
      "uni": 1602,
      "lishini": 1603,
      "tidan": 1604,
      "Ġyon": 1605,
      "Ġul": 1606,
      "ammo": 1607,
      "50": 1608,
      "lug": 1609,
      "Ġuru": 1610,
      "ganini": 1611,
      "Ð»Ð¸": 1612,
      "Ġrivojlantirish": 1613,
      "Ġpul": 1614,
      "ĠUlar": 1615,
      "Ġetgan": 1616,
      "Ġsen": 1617,
      "tibor": 1618,
      "Ġfan": 1619,
      "Ġuzoq": 1620,
      "ling": 1621,
      "Ġvazirligi": 1622,
      "ĠÑĤ": 1623,
      "qot": 1624,
      "Ġxususiyat": 1625,
      "miyati": 1626,
      "kasi": 1627,
      "qe": 1628,
      "ĠLekin": 1629,
      "Ġatro": 1630,
      "ap": 1631,
      "Ġaholi": 1632,
      "Ġoladi": 1633,
      "ÂŃ": 1634,
      "\",": 1635,
      "kki": 1636,
      "chin": 1637,
      "Ġkomp": 1638,
      "mni": 1639,
      "lsin": 1640,
      "Ġgaz": 1641,
      "qarish": 1642,
      "ĠHar": 1643,
      "ĠIs": 1644,
      "ĠÐ±": 1645,
      "Ġkar": 1646,
      "Ġqizi": 1647,
      "Ġhis": 1648,
      "Ġyorda": 1649,
      "fe": 1650,
      "Ġishla": 1651,
      "Ġaloqa": 1652,
      "Ġbalki": 1653,
      "Ġchek": 1654,
      "shimcha": 1655,
      "nda": 1656,
      "mol": 1657,
      "yekt": 1658,
      "Ġqilinadi": 1659,
      "qqi": 1660,
      "Ġoq": 1661,
      "Ġnamo": 1662,
      "Ġnomi": 1663,
      "Ġmateri": 1664,
      "oriy": 1665,
      "ON": 1666,
      "rati": 1667,
      "Ġnav": 1668,
      "Ġravishda": 1669,
      "________________": 1670,
      "Ġasosan": 1671,
      "log": 1672,
      "qish": 1673,
      "riyat": 1674,
      "larimiz": 1675,
      "Ġsay": 1676,
      ".)": 1677,
      "ora": 1678,
      "000": 1679,
      "CH": 1680,
      "Ġosti": 1681,
      "klar": 1682,
      "Ġyasha": 1683,
      "Ġtizim": 1684,
      "Ġqator": 1685,
      "Ġketdi": 1686,
      "lana": 1687,
      "Ġnafa": 1688,
      "Ġorgani": 1689,
      "Ġhavo": 1690,
      "Ġpast": 1691,
      "--": 1692,
      "ĠTe": 1693,
      "tiradi": 1694,
      "Ġyog": 1695,
      "Ġquv": 1696,
      "Ġsoni": 1697,
      "dlar": 1698,
      "ĠBosh": 1699,
      "Ġbildi": 1700,
      "Ġchora": 1701,
      "ĠMasalan": 1702,
      "Ġtav": 1703,
      "Ġmuammo": 1704,
      "ĠSi": 1705,
      "ĠÐ¸": 1706,
      "Ġichki": 1707,
      "disa": 1708,
      "Ġviloyati": 1709,
      "Ġsov": 1710,
      "Ġmahal": 1711,
      "Ġ30": 1712,
      "rif": 1713,
      "shina": 1714,
      "Ġkuza": 1715,
      "xsha": 1716,
      "Ġnatijasida": 1717,
      "Ñı": 1718,
      "Ġaniqlash": 1719,
      "ting": 1720,
      "rildi": 1721,
      "sam": 1722,
      "sak": 1723,
      "Ġah": 1724,
      "Ġmaktab": 1725,
      "Ġana": 1726,
      "lil": 1727,
      "siyo": 1728,
      "Ġyar": 1729,
      "Ġtegishli": 1730,
      "bot": 1731,
      "Ġxavf": 1732,
      "Ġtekshi": 1733,
      "Ġhal": 1734,
      "per": 1735,
      "Ġnazar": 1736,
      "Ġalma": 1737,
      "ĠSho": 1738,
      "jrib": 1739,
      "Ġchiqish": 1740,
      "Ġhimoya": 1741,
      "Ġjihat": 1742,
      "Ġmat": 1743,
      "minlash": 1744,
      "yol": 1745,
      "lami": 1746,
      "ĠBunday": 1747,
      "limi": 1748,
      "ĠNo": 1749,
      "Ðº": 1750,
      "dur": 1751,
      "naviy": 1752,
      "Ġfarq": 1753,
      "Ġsav": 1754,
      "ksi": 1755,
      "tta": 1756,
      "jalik": 1757,
      "Ġkichik": 1758,
      "shish": 1759,
      "nÑĭ": 1760,
      "assa": 1761,
      "Ġhol": 1762,
      "Ġ25": 1763,
      "Ġfunksiya": 1764,
      "shadi": 1765,
      "Ġoila": 1766,
      "Ġpre": 1767,
      "Ġang": 1768,
      "Ġortiq": 1769,
      "Ġsal": 1770,
      "land": 1771,
      "mga": 1772,
      "risidagi": 1773,
      "chiqarish": 1774,
      "Ġqilin": 1775,
      "Ġqancha": 1776,
      "stik": 1777,
      "Ġmarkazi": 1778,
      "Ġjamiyat": 1779,
      "ĠAmmo": 1780,
      "Ġmul": 1781,
      "nan": 1782,
      "nika": 1783,
      "blag": 1784,
      "Ġbilim": 1785,
      "ĠSha": 1786,
      "Ġishtirok": 1787,
      "Ġqila": 1788,
      "Ġqaro": 1789,
      "miya": 1790,
      "ngil": 1791,
      "ĠDavlat": 1792,
      "Ġbino": 1793,
      "yiladi": 1794,
      "uqur": 1795,
      "Ġdavom": 1796,
      "kati": 1797,
      "Ġdavomida": 1798,
      "ge": 1799,
      "dr": 1800,
      "shin": 1801,
      "for": 1802,
      "Ġosh": 1803,
      "madi": 1804,
      "fiy": 1805,
      "Ġavto": 1806,
      "ganda": 1807,
      "tibi": 1808,
      "ÑĤÐ¸": 1809,
      "To": 1810,
      "Ġreja": 1811,
      "30": 1812,
      "ayli": 1813,
      "Ġxodim": 1814,
      "Ġ11": 1815,
      "25": 1816,
      "rsatki": 1817,
      "Ġsiste": 1818,
      "Ġtarqa": 1819,
      "ngli": 1820,
      "Ġqishloq": 1821,
      "Ġlekin": 1822,
      "ban": 1823,
      "Ġmablag": 1824,
      "rasi": 1825,
      "zg": 1826,
      "Ġsavo": 1827,
      "ĠPreziden": 1828,
      "Ġona": 1829,
      "Ġyordamida": 1830,
      "kis": 1831,
      "sis": 1832,
      "Ġturadi": 1833,
      "lyu": 1834,
      "dago": 1835,
      "rna": 1836,
      "moqchi": 1837,
      "lardi": 1838,
      "Ġsavdo": 1839,
      "chak": 1840,
      "jriba": 1841,
      "Ġhisobi": 1842,
      "kro": 1843,
      "korlik": 1844,
      "Ġtadqi": 1845,
      "lishiga": 1846,
      "Ġtarix": 1847,
      "Ġkitob": 1848,
      "Ñĩ": 1849,
      "Ġsud": 1850,
      "Ġyubo": 1851,
      "Ġele": 1852,
      "Ġkis": 1853,
      "kid": 1854,
      "Ġishon": 1855,
      "Ġmanba": 1856,
      "Ġmustaqil": 1857,
      "Ġ:": 1858,
      "Ġener": 1859,
      "ft": 1860,
      "mor": 1861,
      ");": 1862,
      "ati": 1863,
      "Ġkenga": 1864,
      "llani": 1865,
      "yingi": 1866,
      "qituvchi": 1867,
      "uch": 1868,
      "Ġundan": 1869,
      "âĢĿ,": 1870,
      "Ġtog": 1871,
      "Ġjoylashgan": 1872,
      "bek": 1873,
      "gich": 1874,
      "Ġboy": 1875,
      "men": 1876,
      "Ġeks": 1877,
      "Ġberdi": 1878,
      "Ġust": 1879,
      "Ġkura": 1880,
      "lmoqda": 1881,
      "Ġmaterial": 1882,
      "Ġhodisa": 1883,
      "ï¿½ï¿½ï¿½": 1884,
      "Ġchuqur": 1885,
      "Ġmuta": 1886,
      "rni": 1887,
      "noat": 1888,
      "Ġqoida": 1889,
      "Ġ22": 1890,
      "Ġayrim": 1891,
      "Ġtashkilot": 1892,
      "assasa": 1893,
      "nalish": 1894,
      "Ġtashqi": 1895,
      "Ġxalqaro": 1896,
      "ĠBiz": 1897,
      "Ġnazorat": 1898,
      "rsatish": 1899,
      "Ġmin": 1900,
      "Ġtakli": 1901,
      "Ġtushuncha": 1902,
      "Ġras": 1903,
      "umladan": 1904,
      "Ġag": 1905,
      "ĠBe": 1906,
      "lanuvchi": 1907,
      "mizda": 1908,
      "Ġtopshi": 1909,
      "Ġof": 1910,
      "Ġmuho": 1911,
      "Ġqal": 1912,
      "Ġqism": 1913,
      "nib": 1914,
      "Ġendi": 1915,
      "Ġsiz": 1916,
      "ĠQon": 1917,
      "Ġmuassasa": 1918,
      "Ġtasdiq": 1919,
      "Ġaf": 1920,
      "Ġtushun": 1921,
      "be": 1922,
      "Ġiste": 1923,
      "urs": 1924,
      "shida": 1925,
      "ram": 1926,
      "Ġtexnologiya": 1927,
      "Ġmoliya": 1928,
      "Ġchiziq": 1929,
      "Bu": 1930,
      "Â».": 1931,
      "ziya": 1932,
      "noyat": 1933,
      "etr": 1934,
      "malari": 1935,
      "Ġmaydon": 1936,
      "kar": 1937,
      "dul": 1938,
      "Ġishlar": 1939,
      "niyati": 1940,
      "zat": 1941,
      "Ġvoqe": 1942,
      "Ġyigi": 1943,
      "Ġbergan": 1944,
      "redi": 1945,
      "Ġaka": 1946,
      "Ġjamoa": 1947,
      "tira": 1948,
      "Ġtarmoq": 1949,
      "Ġichida": 1950,
      "hkam": 1951,
      "Ġl": 1952,
      "Ġancha": 1953,
      "lis": 1954,
      "yapti": 1955,
      "ĠUshbu": 1956,
      "Ġov": 1957,
      "tirgan": 1958,
      "tkazish": 1959,
      "ĠMi": 1960,
      "siyasi": 1961,
      "tel": 1962,
      "Ġdedi": 1963,
      "dov": 1964,
      "ĠDa": 1965,
      "zod": 1966,
      "Ġ24": 1967,
      "Ġqop": 1968,
      "Ġbelgilangan": 1969,
      "90": 1970,
      "masining": 1971,
      "Ġrea": 1972,
      "ĠYe": 1973,
      "Ġchega": 1974,
      "ĠMo": 1975,
      "qu": 1976,
      "lashib": 1977,
      "Ġtili": 1978,
      "udi": 1979,
      "ylab": 1980,
      "niye": 1981,
      "Ġorasida": 1982,
      "Ġw": 1983,
      "grafi": 1984,
      "xir": 1985,
      "los": 1986,
      "udo": 1987,
      "II": 1988,
      "Ġketgan": 1989,
      "Ġtuf": 1990,
      "Ġbuzi": 1991,
      "Ġishlabchiqarish": 1992,
      "muni": 1993,
      "Ġovo": 1994,
      "Ġusu": 1995,
      "Ġahamiyat": 1996,
      "Ġ)": 1997,
      "Ġthe": 1998,
      "chib": 1999,
      "Ġnor": 2000,
      "mog": 2001,
      "Ġmustahkam": 2002,
      "Ġhudud": 2003,
      "tov": 2004,
      "tiruvchi": 2005,
      "moniy": 2006,
      "Ġkelishi": 2007,
      "Ġetiladi": 2008,
      "ossiya": 2009,
      "lmasa": 2010,
      "yilda": 2011,
      "ĠShuning": 2012,
      "je": 2013,
      "lardagi": 2014,
      "Ġtajriba": 2015,
      "tiyo": 2016,
      "Ġml": 2017,
      "tika": 2018,
      "Ġmaqsadida": 2019,
      "rishga": 2020,
      "uddi": 2021,
      "TI": 2022,
      "digan": 2023,
      "kab": 2024,
      "rid": 2025,
      "Ġboshladi": 2026,
      "Ġoda": 2027,
      "Ġtabiiy": 2028,
      "Ġkiradi": 2029,
      "Ġson": 2030,
      "Ġqiz": 2031,
      "mis": 2032,
      "shlar": 2033,
      "liklari": 2034,
      "lashtirilgan": 2035,
      "kra": 2036,
      "xat": 2037,
      "Ġamal": 2038,
      "Ġoldin": 2039,
      "matik": 2040,
      "Ġsub": 2041,
      "Ġetib": 2042,
      "Ġsog": 2043,
      "Ġjon": 2044,
      "Ġissiq": 2045,
      "jaligi": 2046,
      "tur": 2047,
      "Ġturi": 2048,
      "Ġes": 2049,
      "Ġxi": 2050,
      "Ġfoiz": 2051,
      "Ġjoriy": 2052,
      "Ð´Ð°": 2053,
      "ĠÂ»": 2054,
      "AS": 2055,
      "llash": 2056,
      "atto": 2057,
      "paniya": 2058,
      "Ġvaki": 2059,
      "Ġtuga": 2060,
      "Ġmashina": 2061,
      "Ġsharoi": 2062,
      "che": 2063,
      "rsatkich": 2064,
      "Ġhaqidagi": 2065,
      "yek": 2066,
      "Ġolim": 2067,
      "Ġbug": 2068,
      "Ġtrans": 2069,
      "Ġmeto": 2070,
      "rtasida": 2071,
      "Ġgul": 2072,
      "Ġuzun": 2073,
      "Ġqadar": 2074,
      "Ġtuproq": 2075,
      "Ġtaklif": 2076,
      "Ġtayyorlash": 2077,
      "Ġunda": 2078,
      "km": 2079,
      "Ġchiqqan": 2080,
      "Ġmiqdori": 2081,
      "Ġqora": 2082,
      "Ġviloyat": 2083,
      "Ġsifat": 2084,
      "zgarish": 2085,
      "zirlar": 2086,
      "Ġberi": 2087,
      "Ġchiqar": 2088,
      "Ġfaol": 2089,
      "Ġtushi": 2090,
      "DA": 2091,
      "Ġbosqich": 2092,
      "ff": 2093,
      "Ġelement": 2094,
      "Ġshax": 2095,
      "ĠFa": 2096,
      "uvchan": 2097,
      "llab": 2098,
      "lit": 2099,
      "yuk": 2100,
      "Ġaks": 2101,
      "ĠMir": 2102,
      "ĠAn": 2103,
      "Ġdoira": 2104,
      "lota": 2105,
      "Ġxona": 2106,
      "Ġerit": 2107,
      "40": 2108,
      "Ġtufayli": 2109,
      "ĠIsh": 2110,
      "Ġtovar": 2111,
      "bob": 2112,
      "Ġijro": 2113,
      "ĠKi": 2114,
      "Ġsoat": 2115,
      "Ġtik": 2116,
      "Ġvu": 2117,
      "Ġdarajada": 2118,
      "zma": 2119,
      "Ġsoliq": 2120,
      "Ġhisobga": 2121,
      "Ġbozor": 2122,
      "Ġmazkur": 2123,
      "niqsa": 2124,
      "Ġqiymati": 2125,
      "Ġmexa": 2126,
      "voiy": 2127,
      "Ġsaqlash": 2128,
      "gona": 2129,
      "Ġom": 2130,
      "Ta": 2131,
      "yadi": 2132,
      "Ġyanada": 2133,
      "iga": 2134,
      "Ġkecha": 2135,
      "Ġsug": 2136,
      "Ġqiluvchi": 2137,
      "Ġtartibi": 2138,
      "bil": 2139,
      "Ġtov": 2140,
      "ayra": 2141,
      "ĠBunda": 2142,
      "Ġkuchi": 2143,
      "lganda": 2144,
      "Ġenergiya": 2145,
      "Ġishlash": 2146,
      "Ġjoyi": 2147,
      "Ġerkin": 2148,
      "Ġbiror": 2149,
      "sizlik": 2150,
      "Ġmiqdor": 2151,
      "Ġdastur": 2152,
      "Ġsodir": 2153,
      "dbir": 2154,
      "ĠÐ¼": 2155,
      "zib": 2156,
      "og": 2157,
      "tkaz": 2158,
      "Ġbitta": 2159,
      "ĠQu": 2160,
      "lumotlar": 2161,
      "gik": 2162,
      "Ġqaysi": 2163,
      "Ġbaland": 2164,
      "tlari": 2165,
      "ĠFar": 2166,
      "ene": 2167,
      "mda": 2168,
      "Ġharo": 2169,
      "Ġ100": 2170,
      "sk": 2171,
      "Ġolinadi": 2172,
      "Ġkirib": 2173,
      "zil": 2174,
      "hiyati": 2175,
      "yuq": 2176,
      "Ġ27": 2177,
      "rganish": 2178,
      "chisi": 2179,
      "Ġchegara": 2180,
      "Ġbila": 2181,
      "Ġvaqti": 2182,
      "Ġqobi": 2183,
      "ĠNe": 2184,
      "ich": 2185,
      "Ġqilishi": 2186,
      "Ġsta": 2187,
      "ĠHam": 2188,
      "Ġammo": 2189,
      "Ġxarajat": 2190,
      "Ġtarixi": 2191,
      "ncha": 2192,
      "batta": 2193,
      "Ð´Ð¸": 2194,
      "Ġtahlil": 2195,
      "24": 2196,
      "Ġ50": 2197,
      "kov": 2198,
      "Ġsur": 2199,
      "oni": 2200,
      "Ġxarak": 2201,
      "riladigan": 2202,
      "mik": 2203,
      "shan": 2204,
      "stit": 2205,
      "Ġyaratish": 2206,
      "ÑĬ": 2207,
      "van": 2208,
      "yev": 2209,
      "rma": 2210,
      "Ġfoydalani": 2211,
      "Ġyash": 2212,
      "Ġrivojlanishi": 2213,
      "Ġchet": 2214,
      "60": 2215,
      "Ġhoki": 2216,
      "Ġtamo": 2217,
      "Ġqayd": 2218,
      "nali": 2219,
      "Ġsport": 2220,
      "lcha": 2221,
      "lanadigan": 2222,
      "Ġjihatdan": 2223,
      "Ġ23": 2224,
      "Ġbirik": 2225,
      "Ġagar": 2226,
      "miga": 2227,
      "pro": 2228,
      "yilgan": 2229,
      "bati": 2230,
      "Ġnash": 2231,
      "deb": 2232,
      "Ð³Ð°": 2233,
      "bon": 2234,
      "Ġdaro": 2235,
      "simon": 2236,
      "ĠPo": 2237,
      "rakkab": 2238,
      "ĠMahka": 2239,
      "ĠRossiya": 2240,
      "Ġoch": 2241,
      "simlik": 2242,
      "Ġjarayonida": 2243,
      "ygan": 2244,
      "čĊ": 2245,
      "Ġista": 2246,
      "Ġqattiq": 2247,
      "Ġboradi": 2248,
      "Ġbag": 2249,
      "Ġmilli": 2250,
      "tli": 2251,
      "yna": 2252,
      "ÑĢÐ¸": 2253,
      "Ġap": 2254,
      "Ġularga": 2255,
      "jal": 2256,
      "hra": 2257,
      "Ġgapi": 2258,
      "bn": 2259,
      "Ġelektr": 2260,
      "Ġvoqea": 2261,
      "âĢĶâĢĶ": 2262,
      "Ġbolalar": 2263,
      "sav": 2264,
      "Ġimkoniyat": 2265,
      "marqan": 2266,
      "Ġyetkazi": 2267,
      "lalar": 2268,
      "Ġzarar": 2269,
      "lub": 2270,
      "Ġxal": 2271,
      "tning": 2272,
      "Ġyechi": 2273,
      "ammad": 2274,
      "ĠOsiyo": 2275,
      "Ġiqtisodi": 2276,
      "xoro": 2277,
      "sol": 2278,
      "ĠShunday": 2279,
      "yabr": 2280,
      "laka": 2281,
      "Ġmulo": 2282,
      "Ġtib": 2283,
      "rij": 2284,
      "mizning": 2285,
      "ĠïĢ": 2286,
      "Ġjahon": 2287,
      "ĠRo": 2288,
      "Ġmaqo": 2289,
      "Ġkela": 2290,
      "ĠVazirlar": 2291,
      "Ġixti": 2292,
      "Ġsir": 2293,
      "Ġkasb": 2294,
      "ĠChunki": 2295,
      "Ġkeyingi": 2296,
      "Ġkunda": 2297,
      "OV": 2298,
      "Ġkelish": 2299,
      "Ġdey": 2300,
      "shuno": 2301,
      "Ġizo": 2302,
      "Ġerishi": 2303,
      "Ġning": 2304,
      "Ġhayoti": 2305,
      "zing": 2306,
      "Ġtaraqqi": 2307,
      "ligida": 2308,
      "ĠHozir": 2309,
      "Ġaq": 2310,
      "Ġjis": 2311,
      "ĠAs": 2312,
      "Ġyuzaga": 2313,
      "til": 2314,
      "ĠMuh": 2315,
      "Ġyubor": 2316,
      "chon": 2317,
      "Ġfaoliyatini": 2318,
      "amol": 2319,
      "Ġboshqarish": 2320,
      "Ġope": 2321,
      "Ġmenga": 2322,
      "ata": 2323,
      "Ġjan": 2324,
      "Ġborib": 2325,
      "lya": 2326,
      "Ġ40": 2327,
      "Ġjarayoni": 2328,
      "Ġboshlab": 2329,
      "kt": 2330,
      "Ġkechi": 2331,
      "Ġharbiy": 2332,
      "Ġbank": 2333,
      "choq": 2334,
      "xas": 2335,
      "Ġmajbu": 2336,
      "yim": 2337,
      "Ġ28": 2338,
      "pay": 2339,
      "lining": 2340,
      "Ñī": 2341,
      "23": 2342,
      "Ġasa": 2343,
      "rilib": 2344,
      "Ġdastlab": 2345,
      "Ġgu": 2346,
      "Ġpedago": 2347,
      "shunos": 2348,
      "sixo": 2349,
      "Ġtuman": 2350,
      "Ġrahbar": 2351,
      "Ġkuchli": 2352,
      "Ġvaziyat": 2353,
      "Ġfe": 2354,
      "Ġetdi": 2355,
      "Ġshoir": 2356,
      "ulosa": 2357,
      "Ġisti": 2358,
      "Ġavva": 2359,
      "Ġtahri": 2360,
      "Ġmavzu": 2361,
      "Ġvaqtda": 2362,
      "Ġoid": 2363,
      "Ġtasvir": 2364,
      "Ġfik": 2365,
      "shuv": 2366,
      "RI": 2367,
      "hor": 2368,
      "Ġchunki": 2369,
      "lka": 2370,
      "ĠNavoiy": 2371,
      "Ġoliy": 2372,
      "tori": 2373,
      "....": 2374,
      "sional": 2375,
      "Ġjin": 2376,
      "Ġtoza": 2377,
      "Bo": 2378,
      "Ġbaj": 2379,
      "onaviy": 2380,
      "Ðĺ": 2381,
      "Ġjam": 2382,
      "Ġmanfa": 2383,
      "Ġqiyin": 2384,
      "Ġtekis": 2385,
      "Ġjumladan": 2386,
      "ĠÐ¿": 2387,
      "Ġhukm": 2388,
      "urt": 2389,
      "Ġ+": 2390,
      "lmadi": 2391,
      "Ġat": 2392,
      "toy": 2393,
      "ĠÐ²": 2394,
      "Ġmurakkab": 2395,
      "bay": 2396,
      "ib": 2397,
      "Ġkucha": 2398,
      "tilishi": 2399,
      "Ġerta": 2400,
      "roz": 2401,
      "ĠPa": 2402,
      "Ġâ": 2403,
      "tiya": 2404,
      "rtacha": 2405,
      "sul": 2406,
      "zatsiya": 2407,
      "Ġjinoyat": 2408,
      "Ġxizmati": 2409,
      "Ġsababli": 2410,
      "ono": 2411,
      "Ġtin": 2412,
      "zasi": 2413,
      "yishi": 2414,
      "Ġop": 2415,
      "rsatadi": 2416,
      "Ġayt": 2417,
      "linishi": 2418,
      "Ġdeyiladi": 2419,
      "Ġvujud": 2420,
      "Ġadabiyot": 2421,
      "ĠKon": 2422,
      "Ġdars": 2423,
      "Ġhuquqi": 2424,
      "ridagi": 2425,
      "ĠRe": 2426,
      "daryo": 2427,
      "ĠShar": 2428,
      "por": 2429,
      "Ġhayvon": 2430,
      "Ġsiyosiy": 2431,
      "Ġodamlar": 2432,
      "kiy": 2433,
      "Ġyirik": 2434,
      "Ġelektron": 2435,
      "bari": 2436,
      "she": 2437,
      "kun": 2438,
      "masdan": 2439,
      "Ġtumani": 2440,
      "Ġoxi": 2441,
      "Ġishga": 2442,
      "Ġser": 2443,
      "Ġishlari": 2444,
      "ĠÐĳ": 2445,
      "Ġush": 2446,
      "Ġbilish": 2447,
      "ektor": 2448,
      "stitut": 2449,
      "hiy": 2450,
      "Ġkislota": 2451,
      "bol": 2452,
      "Ġzamon": 2453,
      "ĠOliy": 2454,
      "Ġyetish": 2455,
      "Ġmuro": 2456,
      "Ġtalaba": 2457,
      ".:": 2458,
      "zkur": 2459,
      "ĠAv": 2460,
      "ĠChi": 2461,
      "Ġon": 2462,
      "tim": 2463,
      "Ġatrofi": 2464,
      "Ġmode": 2465,
      "masiga": 2466,
      "shgan": 2467,
      "indi": 2468,
      "yar": 2469,
      "ĠQi": 2470,
      "xassis": 2471,
      "Ġshartnoma": 2472,
      "80": 2473,
      "Ġyomon": 2474,
      "mush": 2475,
      "ruk": 2476,
      "rtasidagi": 2477,
      "Ġyarat": 2478,
      "Ya": 2479,
      "Ġtenglama": 2480,
      "ĠSe": 2481,
      "lashadi": 2482,
      "goh": 2483,
      "Ġkes": 2484,
      "Ġï¿½": 2485,
      "lasi": 2486,
      "70": 2487,
      "Ġsil": 2488,
      "Ġchiqadi": 2489,
      "ologik": 2490,
      "Ġmeni": 2491,
      "Ġinve": 2492,
      "Ġqoladi": 2493,
      "Ġrespublika": 2494,
      "lch": 2495,
      "Ġyilda": 2496,
      "ensi": 2497,
      "Ġqilishga": 2498,
      "zidan": 2499,
      "Ġyopi": 2500,
      "bra": 2501,
      "Ġdavrida": 2502,
      "shiq": 2503,
      "ĠBiroq": 2504,
      "oz": 2505,
      "Ġobyekt": 2506,
      "Ġbesh": 2507,
      "Ġ26": 2508,
      "chinchi": 2509,
      "Ġkirish": 2510,
      "Ġvujudga": 2511,
      "las": 2512,
      "Ġdaromad": 2513,
      "Ġos": 2514,
      "sos": 2515,
      "lashda": 2516,
      "savv": 2517,
      "Ġrang": 2518,
      "tishga": 2519,
      "dning": 2520,
      "ligining": 2521,
      "tti": 2522,
      "Ġkredi": 2523,
      "lanma": 2524,
      "Ġishi": 2525,
      "Ġkul": 2526,
      "96": 2527,
      "ches": 2528,
      "Ġmag": 2529,
      "Ġuyg": 2530,
      "Ġstan": 2531,
      "Ġreaksiya": 2532,
      "Ġborish": 2533,
      "Ġvaqtida": 2534,
      "lova": 2535,
      "Ġqiymat": 2536,
      "ayyan": 2537,
      "likdan": 2538,
      "jet": 2539,
      "Ġayol": 2540,
      "Ġchaqi": 2541,
      "Ġhatto": 2542,
      "tara": 2543,
      "Ð½Ð³": 2544,
      "Ġjismoniy": 2545,
      "LA": 2546,
      "fta": 2547,
      "ĠSu": 2548,
      "ĠSiz": 2549,
      "Ġbajarish": 2550,
      "Ġdarajasi": 2551,
      "rika": 2552,
      "Ġpod": 2553,
      "ĠAQ": 2554,
      "ero": 2555,
      "Ġhujayra": 2556,
      "mino": 2557,
      "ĠDar": 2558,
      "Ġsharoit": 2559,
      "lol": 2560,
      "vosita": 2561,
      "ĠXi": 2562,
      "Ġberib": 2563,
      "Ġqobili": 2564,
      "Ġnamoyon": 2565,
      "Ġboshqalar": 2566,
      "Ġxuddi": 2567,
      "Ġmalaka": 2568,
      "mid": 2569,
      "Ġsana": 2570,
      "ligidan": 2571,
      "Ò³": 2572,
      "Ġbayon": 2573,
      "Ġnamu": 2574,
      "yotgani": 2575,
      "Ġnur": 2576,
      "Ġsolish": 2577,
      "tni": 2578,
      "Ġtako": 2579,
      "ĠDo": 2580,
      "Ha": 2581,
      "Ġqisqa": 2582,
      "ĠXalq": 2583,
      "yosh": 2584,
      "marqand": 2585,
      "Ġaytgan": 2586,
      "Ġtana": 2587,
      "Ġnafar": 2588,
      "Ġochiq": 2589,
      "yg": 2590,
      "ĠBundan": 2591,
      "Ġmol": 2592,
      "OR": 2593,
      "27": 2594,
      "tildi": 2595,
      "sonli": 2596,
      "Ġxulosa": 2597,
      "plab": 2598,
      "lidan": 2599,
      "xe": 2600,
      "Ġ29": 2601,
      "Ġ21": 2602,
      "ak": 2603,
      "vich": 2604,
      "yxat": 2605,
      "katsiya": 2606,
      "ï¿½ï¿½ï¿½ï¿½ï¿½ï¿½ï¿½ï¿½ï¿½ï¿½ï¿½ï¿½ï¿½ï¿½ï¿½ï¿½ï¿½ï¿½ï¿½ï¿½ï¿½ï¿½ï¿½ï¿½ï¿½ï¿½ï¿½ï¿½ï¿½ï¿½ï¿½ï¿½": 2607,
      "ĠHu": 2608,
      "yida": 2609,
      "Ġyarim": 2610,
      "id": 2611,
      "Ġtabiat": 2612,
      "Ġsarf": 2613,
      "Ñŀ": 2614,
      "alli": 2615,
      "Ġikkita": 2616,
      "Ġbera": 2617,
      "enti": 2618,
      "tex": 2619,
      "diiy": 2620,
      "Ġaytib": 2621,
      "Ġoyoq": 2622,
      "Ġtaqdim": 2623,
      "Ġturlari": 2624,
      "lotlar": 2625,
      "Ġfon": 2626,
      "Ġketadi": 2627,
      "ĠĠ": 2628,
      "Ġalmash": 2629,
      "stitsiya": 2630,
      "laridagi": 2631,
      "Ġola": 2632,
      "stan": 2633,
      "Ġmanfaat": 2634,
      "dora": 2635,
      "ĠEndi": 2636,
      "Ġqad": 2637,
      "Ġradi": 2638,
      "evro": 2639,
      "tom": 2640,
      "ĠDemak": 2641,
      "chki": 2642,
      "noy": 2643,
      "maning": 2644,
      "Ġpaytda": 2645,
      "Ġrus": 2646,
      "Ġnut": 2647,
      "mizga": 2648,
      "chalik": 2649,
      "Ġmahalliy": 2650,
      "Ġkompaniya": 2651,
      "tki": 2652,
      "ĠMuhammad": 2653,
      "batida": 2654,
      "ĠQora": 2655,
      "Ġtopgan": 2656,
      "Ġsig": 2657,
      "ab": 2658,
      "ING": 2659,
      "Ġhaqda": 2660,
      "ĠTu": 2661,
      "ĠÐ´": 2662,
      "Ġurug": 2663,
      "Ġtushib": 2664,
      "Ġqog": 2665,
      "ljal": 2666,
      "ĠĊĠĊ": 2667,
      "Ġtakomil": 2668,
      "qqa": 2669,
      "Ġmutaxassis": 2670,
      "ĠAh": 2671,
      "ĠAr": 2672,
      "shma": 2673,
      "Ġoddiy": 2674,
      "Ġyuzasidan": 2675,
      "Ġishonch": 2676,
      "Ġ60": 2677,
      "Ġyasa": 2678,
      "Ġformu": 2679,
      "Ġichiga": 2680,
      "Ġyashi": 2681,
      "lekt": 2682,
      "Ġoshiriladi": 2683,
      "ĠBuxoro": 2684,
      "enga": 2685,
      "Ġavval": 2686,
      "gor": 2687,
      "yoviy": 2688,
      "kaziy": 2689,
      "Ġxalqi": 2690,
      "shlari": 2691,
      "Ġhali": 2692,
      "Ġhola": 2693,
      "skiy": 2694,
      "ffi": 2695,
      "kiston": 2696,
      "Ġtadqiqot": 2697,
      "emur": 2698,
      "met": 2699,
      "sofa": 2700,
      "rsatilgan": 2701,
      "Ġaniqlanadi": 2702,
      "qaror": 2703,
      "tiriladi": 2704,
      "qam": 2705,
      "Ġdu": 2706,
      "Ġberuvchi": 2707,
      "pon": 2708,
      "zni": 2709,
      "yn": 2710,
      "Ġgra": 2711,
      "IL": 2712,
      "Ġdaryo": 2713,
      "Ġnazariya": 2714,
      "ĠShi": 2715,
      "lqin": 2716,
      "Ġmexani": 2717,
      "45": 2718,
      "Ġshakli": 2719,
      "Ġresurs": 2720,
      "Ġtarzda": 2721,
      "pol": 2722,
      "ĠRespublikasining": 2723,
      ",âĢĶ": 2724,
      "Ġorganlari": 2725,
      "Ġhollarda": 2726,
      "Ġnazarda": 2727,
      "Ġsamarali": 2728,
      "mizni": 2729,
      "Ġmuayyan": 2730,
      "Ġostida": 2731,
      "ĠAbdul": 2732,
      "Ġtasavv": 2733,
      "usta": 2734,
      "ket": 2735,
      "zin": 2736,
      "qtisodiy": 2737,
      "Ġtax": 2738,
      "ĠYer": 2739,
      "Ġishlatiladi": 2740,
      "laydigan": 2741,
      "ĠAf": 2742,
      "Ġehtiyo": 2743,
      "Ġtarixiy": 2744,
      "Ġmoddiy": 2745,
      "nit": 2746,
      "uli": 2747,
      "Ġhozirgi": 2748,
      "Ġsm": 2749,
      "Ġper": 2750,
      "Ġsuyuq": 2751,
      "shak": 2752,
      "ngizni": 2753,
      "pir": 2754,
      "Ġayniqsa": 2755,
      "Ġxorij": 2756,
      "ĠVA": 2757,
      "naqa": 2758,
      "26": 2759,
      "Ġby": 2760,
      "Ġeka": 2761,
      "Ġhuquqiy": 2762,
      "jaat": 2763,
      "Ġhudu": 2764,
      "Ġkol": 2765,
      "baqa": 2766,
      "mmat": 2767,
      "iston": 2768,
      "yet": 2769,
      "Ġshuncha": 2770,
      "qal": 2771,
      "Ġomil": 2772,
      "Ġrasmiy": 2773,
      "Ġkal": 2774,
      "ĠHi": 2775,
      "hoyat": 2776,
      "Ġamaliy": 2777,
      "Ġjal": 2778,
      "der": 2779,
      "lgari": 2780,
      "ĠKeyin": 2781,
      "Ġfizi": 2782,
      "hur": 2783,
      "boshi": 2784,
      "maydigan": 2785,
      "Ġbadiiy": 2786,
      "ĠâĢĻ": 2787,
      "Ġuyu": 2788,
      "Ġqatna": 2789,
      "Ġqir": 2790,
      "yog": 2791,
      "Ġyerga": 2792,
      "sya": 2793,
      "Ġbunda": 2794,
      "xshash": 2795,
      "bod": 2796,
      "Ġaralash": 2797,
      "Ġmening": 2798,
      "kror": 2799,
      "zgarishi": 2800,
      "faza": 2801,
      "Ġek": 2802,
      "Ġavlo": 2803,
      "Ġbemor": 2804,
      "ĠBar": 2805,
      "Sa": 2806,
      "Ġeta": 2807,
      "tion": 2808,
      "dval": 2809,
      "Ġmashg": 2810,
      "Ġpoy": 2811,
      "Ġmusi": 2812,
      "Ġberiladi": 2813,
      "tirdi": 2814,
      "Ġtexnik": 2815,
      "teriya": 2816,
      "dlari": 2817,
      "ĠBuning": 2818,
      "Yo": 2819,
      "ber": 2820,
      "stika": 2821,
      "tadbir": 2822,
      "lagi": 2823,
      "xsh": 2824,
      "ĠQonun": 2825,
      "Ġmikro": 2826,
      "Ġgeo": 2827,
      "Ġjang": 2828,
      "Ġbosi": 2829,
      "Ġhajmi": 2830,
      "ce": 2831,
      "Ġmaydo": 2832,
      "Ġdeydi": 2833,
      "Ġsuh": 2834,
      "Ġegal": 2835,
      "Ġhuku": 2836,
      "ĠYu": 2837,
      "Ġpasa": 2838,
      "mning": 2839,
      "Ġpara": 2840,
      "Ġpsixo": 2841,
      "ĠCho": 2842,
      "Ġdoimiy": 2843,
      "Ġmulk": 2844,
      "Ġzamonaviy": 2845,
      "sang": 2846,
      "chilari": 2847,
      "Ġtosh": 2848,
      "Ġmassa": 2849,
      "alsa": 2850,
      "Ġoz": 2851,
      "Ġmasofa": 2852,
      "maga": 2853,
      "bosh": 2854,
      "ddi": 2855,
      "lloh": 2856,
      "Ġtele": 2857,
      "Ġqurilma": 2858,
      "Ġumum": 2859,
      "hu": 2860,
      "Na": 2861,
      "kkinchi": 2862,
      "ÑĪÐ¸": 2863,
      "Ġrux": 2864,
      "gungi": 2865,
      "ĠTemur": 2866,
      "75": 2867,
      "Ġusuli": 2868,
      "Ġdastlabki": 2869,
      "Ġidora": 2870,
      "Ġshakllantirish": 2871,
      "ĠTi": 2872,
      "Ġkiritish": 2873,
      "mada": 2874,
      "arakat": 2875,
      "gram": 2876,
      "Ġuchraydi": 2877,
      "Ġovqat": 2878,
      "bet": 2879,
      "versi": 2880,
      "quvvat": 2881,
      "Ġmana": 2882,
      "Ġziyo": 2883,
      "ngra": 2884,
      "ruvchi": 2885,
      "Ġboshi": 2886,
      "qul": 2887,
      "Ġkech": 2888,
      "Ġnamuna": 2889,
      "nggi": 2890,
      "28": 2891,
      "Ġamali": 2892,
      "Ġolam": 2893,
      "ula": 2894,
      "bida": 2895,
      "Ġmuh": 2896,
      "ĠDi": 2897,
      "Ġ;": 2898,
      "Ġiy": 2899,
      "noq": 2900,
      "Ġfarzan": 2901,
      "zbekistonda": 2902,
      "Ġshug": 2903,
      "Ġdol": 2904,
      "maslik": 2905,
      "Ġqarori": 2906,
      "200": 2907,
      "Ġqonu": 2908,
      "ffa": 2909,
      "Ġketa": 2910,
      "Ġsat": 2911,
      "Ġ}": 2912,
      "ĠUlarning": 2913,
      "ĠAmir": 2914,
      "ess": 2915,
      "Ġyili": 2916,
      "kal": 2917,
      "Ġustida": 2918,
      "29": 2919,
      "Ġve": 2920,
      "Ġmurojaat": 2921,
      "Ġhokim": 2922,
      "Ġekanligini": 2923,
      "kuna": 2924,
      "Ġusta": 2925,
      "Ġkeltirilgan": 2926,
      "ngni": 2927,
      "Ġatrof": 2928,
      "ĠQay": 2929,
      "Ġmillion": 2930,
      "Ġpred": 2931,
      "ragi": 2932,
      "Ġtavsiya": 2933,
      "Ġyetib": 2934,
      "och": 2935,
      "chasi": 2936,
      "ĠMil": 2937,
      "ana": 2938,
      "zadi": 2939,
      "biq": 2940,
      "ju": 2941,
      "hqon": 2942,
      "Ġbevosita": 2943,
      "Ġkama": 2944,
      "ĠMarkaziy": 2945,
      "op": 2946,
      "ĠMazkur": 2947,
      "sob": 2948,
      "Ġjalb": 2949,
      "chiligi": 2950,
      "Ġoldida": 2951,
      "ĠSamarqand": 2952,
      "35": 2953,
      "Ġqiyo": 2954,
      "Ġmaqsadi": 2955,
      "Ġholati": 2956,
      "Ġozod": 2957,
      "siri": 2958,
      "ĠMaj": 2959,
      "Ġalbatta": 2960,
      "yasi": 2961,
      "taqa": 2962,
      "Ġmadaniyat": 2963,
      "Ġgacha": 2964,
      "rlar": 2965,
      "Ġsuya": 2966,
      "ratura": 2967,
      "ĠShuningdek": 2968,
      "IM": 2969,
      "ham": 2970,
      "Ġoziq": 2971,
      "Ġ198": 2972,
      "Ð³Ð¸": 2973,
      "ST": 2974,
      "Ġxususiy": 2975,
      "Toshkent": 2976,
      "AM": 2977,
      "Ġimkoniyati": 2978,
      "Ġmarkaz": 2979,
      "Ġahvo": 2980,
      "Ġqilindi": 2981,
      "Ð´a": 2982,
      "hab": 2983,
      "AV": 2984,
      "rda": 2985,
      "Ġberishi": 2986,
      "bini": 2987,
      "Ġuza": 2988,
      "ĠAlloh": 2989,
      "Ġshaxslar": 2990,
      "ulton": 2991,
      "Ġmoddalar": 2992,
      "ĠW": 2993,
      "Ġge": 2994,
      "ĠBirinchi": 2995,
      "Ġetuvchi": 2996,
      "ĠKim": 2997,
      "Ġtani": 2998,
      "Ġchiqdi": 2999,
      "ven": 3000,
      "Ġad": 3001,
      "ytirish": 3002,
      "Ġmuhofaza": 3003,
      "kom": 3004,
      "Ġbundan": 3005,
      "sp": 3006,
      "urta": 3007,
      "Ġustiga": 3008,
      "ska": 3009,
      "Ġolishi": 3010,
      "Ġmohiyati": 3011,
      "ldan": 3012,
      "doq": 3013,
      "Ġsanoat": 3014,
      "ore": 3015,
      "ĠYevro": 3016,
      "Ġsalo": 3017,
      "ĠÐĺ": 3018,
      "laba": 3019,
      "aradi": 3020,
      "lni": 3021,
      "Ġahamiyatga": 3022,
      "masligi": 3023,
      "ze": 3024,
      "Ġmoliyaviy": 3025,
      "ii": 3026,
      "Ġguru": 3027,
      "Ġmuva": 3028,
      "Ġkasallik": 3029,
      "Ġtarji": 3030,
      "Ġxato": 3031,
      "Ð¶": 3032,
      "Ġoxir": 3033,
      "Ġhur": 3034,
      "Ġmis": 3035,
      "Ġkapi": 3036,
      "Ġilgari": 3037,
      "Ġqolish": 3038,
      "Ġqimmat": 3039,
      "Ġvositalari": 3040,
      "Ġtopa": 3041,
      "Ġorganizm": 3042,
      "Ġdeya": 3043,
      "mdan": 3044,
      "ÑĲ": 3045,
      "Ġrivojlanish": 3046,
      "Ġinf": 3047,
      "Ġyagona": 3048,
      "fak": 3049,
      "Ġtushgan": 3050,
      "Ġibn": 3051,
      "chalar": 3052,
      "Ġinti": 3053,
      "Ġjazo": 3054,
      "Ġhayo": 3055,
      "rar": 3056,
      "tari": 3057,
      "qol": 3058,
      "Ġqachon": 3059,
      "Ġulug": 3060,
      "Ġtayin": 3061,
      "zgartirish": 3062,
      "Ġkons": 3063,
      "Ġqarang": 3064,
      "nogo": 3065,
      "zning": 3066,
      "gin": 3067,
      "lashish": 3068,
      "oliya": 3069,
      "Ġam": 3070,
      "Ġetishi": 3071,
      "Ġshaxsiy": 3072,
      "Ġrahbari": 3073,
      "Ġobra": 3074,
      "Ġjamoat": 3075,
      "sari": 3076,
      "Ġmm": 3077,
      "Ġinter": 3078,
      "garlik": 3079,
      "dra": 3080,
      "ĠSen": 3081,
      "jak": 3082,
      "Ġado": 3083,
      "rom": 3084,
      "Ġdavri": 3085,
      "Ġahamiyati": 3086,
      "Ġboshqaruv": 3087,
      "izi": 3088,
      "44": 3089,
      "pincha": 3090,
      "gir": 3091,
      "mash": 3092,
      "masa": 3093,
      "dat": 3094,
      "ĠMahkamasining": 3095,
      "Ġtovush": 3096,
      "Ġyal": 3097,
      "Ġtexnika": 3098,
      "Ġholatda": 3099,
      "dal": 3100,
      "Ġtemir": 3101,
      "biriga": 3102,
      "Ġkamay": 3103,
      "ganidan": 3104,
      "fot": 3105,
      "Ġsez": 3106,
      "fon": 3107,
      "Ġhamkor": 3108,
      "Ð½o": 3109,
      "LARI": 3110,
      "?!": 3111,
      "Ġkesi": 3112,
      "muriy": 3113,
      "ĠAx": 3114,
      "ilgan": 3115,
      "ĠQur": 3116,
      "Ġtartibda": 3117,
      "uvchilar": 3118,
      "Ġyolg": 3119,
      "Ġand": 3120,
      "ÑĦ": 3121,
      "Ð»Ð°ÑĢ": 3122,
      "Ġhisoblash": 3123,
      "Ġdoirasida": 3124,
      "Ġbirgalikda": 3125,
      "Ġfer": 3126,
      "IR": 3127,
      "mining": 3128,
      "boy": 3129,
      "anj": 3130,
      "Ġquyidagicha": 3131,
      "zam": 3132,
      "Ġetildi": 3133,
      "Ġchor": 3134,
      "lanmagan": 3135,
      "fer": 3136,
      "unar": 3137,
      "Ġpri": 3138,
      "Ġbaholash": 3139,
      "Ġbarqaror": 3140,
      "ĠBO": 3141,
      "shon": 3142,
      "ĠZa": 3143,
      "shar": 3144,
      "Ġuchi": 3145,
      "ĠJo": 3146,
      "Ġtuz": 3147,
      "Ġulardan": 3148,
      "ĠAbu": 3149,
      "ĠYuqori": 3150,
      "Ġeki": 3151,
      "ĠTash": 3152,
      "Ġmashq": 3153,
      "Ð¼Ð¸": 3154,
      "Ġyengil": 3155,
      "rilayotgan": 3156,
      "od": 3157,
      "Ġijod": 3158,
      "Ġtinch": 3159,
      "cÑĤ": 3160,
      "Ġadabi": 3161,
      "uf": 3162,
      "sov": 3163,
      "Ġorasidagi": 3164,
      "Ġqaratilgan": 3165,
      "Ġinvestitsiya": 3166,
      "Ġash": 3167,
      "Ġasbob": 3168,
      "Ġerish": 3169,
      "gen": 3170,
      "Ġtaqdir": 3171,
      "Ġyigit": 3172,
      "Ġmaro": 3173,
      "Ġsotib": 3174,
      "Ġtavsi": 3175,
      "ĠÐ½": 3176,
      "Ġchizi": 3177,
      "Ġyetarli": 3178,
      "lli": 3179,
      "Ġazo": 3180,
      "Ġjur": 3181,
      "lok": 3182,
      "Ġpaxta": 3183,
      "Shu": 3184,
      "tub": 3185,
      "Ġuchinchi": 3186,
      "Ġaylan": 3187,
      "dav": 3188,
      "Ġmehmon": 3189,
      "rmon": 3190,
      "Ġishchi": 3191,
      "33": 3192,
      "Ġeri": 3193,
      "Ġqulay": 3194,
      "Ġsohasida": 3195,
      "Ġqurilish": 3196,
      "Ġilm": 3197,
      "toq": 3198,
      "Ġmintaqa": 3199,
      "chiq": 3200,
      "qitish": 3201,
      "ĠPe": 3202,
      "Ġavtomo": 3203,
      "Ġsuhbat": 3204,
      "Ġ35": 3205,
      "Ġuyi": 3206,
      "99": 3207,
      "ĠMeh": 3208,
      "Ġmuvaffa": 3209,
      "\".": 3210,
      "Ġtartibga": 3211,
      "Ġhaqiqat": 3212,
      "ĠII": 3213,
      "Ġyoq": 3214,
      "tkazilgan": 3215,
      "Ġtekshirish": 3216,
      "Ġxususiya": 3217,
      "ĠCH": 3218,
      "para": 3219,
      "Men": 3220,
      "Ġpayt": 3221,
      "ĠÑĪ": 3222,
      "Ġbuyum": 3223,
      "Ġprof": 3224,
      "UN": 3225,
      "Ġtizimini": 3226,
      "Ġmeva": 3227,
      "Ġpoli": 3228,
      "01": 3229,
      "isi": 3230,
      "toriya": 3231,
      "Ġehtiyoj": 3232,
      "zlarini": 3233,
      "mer": 3234,
      "Ġvako": 3235,
      "Ġayb": 3236,
      "Ġnavbat": 3237,
      "ganida": 3238,
      "Ġmayda": 3239,
      "Ġdam": 3240,
      "ĠÐº": 3241,
      "ster": 3242,
      "stitu": 3243,
      "Ġtuzilishi": 3244,
      "Ġbuni": 3245,
      "ĠPrezidenti": 3246,
      "dorlik": 3247,
      "Ġasoslangan": 3248,
      "Ġolin": 3249,
      "Ġmashhur": 3250,
      "Ġnafas": 3251,
      "Ġomma": 3252,
      "Ġmolek": 3253,
      "Ġinte": 3254,
      "qqat": 3255,
      "Ġsim": 3256,
      "Ġyod": 3257,
      "Ġqiladigan": 3258,
      "Ġmajmu": 3259,
      "aroq": 3260,
      "Ð°ÑĢ": 3261,
      "grafik": 3262,
      "ing": 3263,
      "ĠÒĽ": 3264,
      "Ġtasavvur": 3265,
      "ĠYevropa": 3266,
      "Ġformula": 3267,
      "Ġeko": 3268,
      "ljallangan": 3269,
      "Ġmadaniy": 3270,
      "Ġxavfsiz": 3271,
      "uldu": 3272,
      "tr": 3273,
      "ĠUni": 3274,
      "OM": 3275,
      "zoda": 3276,
      "Ġtarkibida": 3277,
      "OL": 3278,
      "rniga": 3279,
      "Ġxon": 3280,
      "ĠGo": 3281,
      "res": 3282,
      "ros": 3283,
      "ĠIkkinchi": 3284,
      "ddin": 3285,
      "Ġdevor": 3286,
      "kul": 3287,
      "oma": 3288,
      "AL": 3289,
      "Ġturibdi": 3290,
      "ĠÑį": 3291,
      "Ġomi": 3292,
      "________________________________": 3293,
      "Ġhaqiqiy": 3294,
      "Ġbuyuk": 3295,
      "leks": 3296,
      "Ġtaqsim": 3297,
      "kala": 3298,
      "Ġdavrda": 3299,
      "nin": 3300,
      "tura": 3301,
      "36": 3302,
      "ĠXa": 3303,
      "tinchi": 3304,
      "Ġmetal": 3305,
      "04": 3306,
      "rug": 3307,
      "Ġxotin": 3308,
      "sab": 3309,
      "Ġhuzu": 3310,
      "Ġelektro": 3311,
      "lning": 3312,
      "ĠEr": 3313,
      "Ġqurish": 3314,
      "Ġfalsa": 3315,
      "bos": 3316,
      "Ġtushu": 3317,
      "Ġ45": 3318,
      "Ġqilsa": 3319,
      "Ġkomis": 3320,
      "sht": 3321,
      "tez": 3322,
      "ĠAna": 3323,
      "Ġqatlam": 3324,
      "Ġdori": 3325,
      "Ġprin": 3326,
      "lur": 3327,
      "Ġtakror": 3328,
      "Ġbah": 3329,
      "lanayotgan": 3330,
      "Ġucha": 3331,
      "nining": 3332,
      "Ġpla": 3333,
      "Ġshunda": 3334,
      "ep": 3335,
      "Ġhiko": 3336,
      "Ġbara": 3337,
      "ining": 3338,
      "Ġqurol": 3339,
      "llaniladi": 3340,
      "Ġyurak": 3341,
      "ulot": 3342,
      "Ġxossa": 3343,
      "Ġketishi": 3344,
      "Ġkeskin": 3345,
      "lmasligi": 3346,
      "tka": 3347,
      "Ġsinf": 3348,
      "lahat": 3349,
      "Ġyetak": 3350,
      "stru": 3351,
      "rate": 3352,
      "Ġtok": 3353,
      "Ġmln": 3354,
      "gach": 3355,
      "Ġerka": 3356,
      "ER": 3357,
      "ĠXora": 3358,
      "Ġxususiyatlari": 3359,
      "Ġruxsat": 3360,
      "ĠGa": 3361,
      "Ġetilishi": 3362,
      "Ġataladi": 3363,
      "Ġxarakter": 3364,
      "lubi": 3365,
      "lamchi": 3366,
      "Qo": 3367,
      "Ġmualli": 3368,
      "nidan": 3369,
      "ĠMana": 3370,
      "Ġsinga": 3371,
      "Ġborishi": 3372,
      "Ġrek": 3373,
      "Ġfil": 3374,
      "Ġqahra": 3375,
      "SI": 3376,
      "Ġedim": 3377,
      "Ġkur": 3378,
      "rimov": 3379,
      "Ġqobiliyati": 3380,
      "Ġur": 3381,
      "Ġqadam": 3382,
      "Ġdoir": 3383,
      "ĠUmu": 3384,
      "Ġizoh": 3385,
      "ĠAbdu": 3386,
      "Ġeski": 3387,
      "Ġoson": 3388,
      "Ġqilinishi": 3389,
      "Ġchog": 3390,
      "tiri": 3391,
      "ĠSH": 3392,
      "Ġraqam": 3393,
      "UR": 3394,
      "Ġsavol": 3395,
      "mitasi": 3396,
      "Ġmadaniyati": 3397,
      "effi": 3398,
      "him": 3399,
      "Ġustidan": 3400,
      "tash": 3401,
      "ĠMat": 3402,
      "orlar": 3403,
      "Ko": 3404,
      "ydir": 3405,
      "sun": 3406,
      "ngga": 3407,
      "Ġtopish": 3408,
      "Ġmaqsadga": 3409,
      "nes": 3410,
      "Ġbosim": 3411,
      "yidagi": 3412,
      "Ġgidro": 3413,
      "parat": 3414,
      "Ġturish": 3415,
      "Ġimkon": 3416,
      ".âĢĶ": 3417,
      "ÑĨ": 3418,
      "ddan": 3419,
      "qich": 3420,
      "Ġbosib": 3421,
      "latib": 3422,
      "joy": 3423,
      "Ġtushuni": 3424,
      "yam": 3425,
      "Ġsingari": 3426,
      "yoriy": 3427,
      "Ġyuksak": 3428,
      "Ġfoydalaniladi": 3429,
      "Ġxorijiy": 3430,
      "Ġtaraf": 3431,
      "nalishi": 3432,
      "qir": 3433,
      "Ġekin": 3434,
      "Ġlab": 3435,
      "Ġtut": 3436,
      "ĠIkki": 3437,
      "Ġuyush": 3438,
      "Ġayo": 3439,
      "OT": 3440,
      "ĠIl": 3441,
      "Ġbosqichi": 3442,
      "ngizga": 3443,
      "Ġstandar": 3444,
      "Ġsovuq": 3445,
      "chta": 3446,
      "Ġissiqlik": 3447,
      "95": 3448,
      "ĠPro": 3449,
      "Ġzich": 3450,
      "gini": 3451,
      "Ġsezi": 3452,
      "Ġtakomillashtirish": 3453,
      "Ġkurash": 3454,
      "Ġdush": 3455,
      "Ġharorat": 3456,
      "Ġpu": 3457,
      "Ġtilida": 3458,
      "Ġinso": 3459,
      "âĢĺ-": 3460,
      "Ġari": 3461,
      "Ġsxe": 3462,
      "Ġturk": 3463,
      "ĠYangi": 3464,
      "Ġdia": 3465,
      "ĠYana": 3466,
      "65": 3467,
      "Ġqut": 3468,
      "Ġnam": 3469,
      "Ġbul": 3470,
      "Ġkri": 3471,
      "Ġkg": 3472,
      "Ġilo": 3473,
      "Ġtanish": 3474,
      "dimgi": 3475,
      "Ġir": 3476,
      "Ġjiho": 3477,
      "Ġsum": 3478,
      "Ġguruhi": 3479,
      "Ġtom": 3480,
      "Ġqud": 3481,
      "ensiya": 3482,
      "masini": 3483,
      "Ġxur": 3484,
      "37": 3485,
      "Ġchap": 3486,
      "Ġinsho": 3487,
      "Ġxush": 3488,
      "Ġnarx": 3489,
      "shoh": 3490,
      "Ġï¿½ï¿½ï¿½ï¿½ï¿½ï¿½": 3491,
      "Ġkoeffi": 3492,
      "fera": 3493,
      "Ġyori": 3494,
      "dasi": 3495,
      "len": 3496,
      "Ġmusiqa": 3497,
      "Ġband": 3498,
      "Ġbozo": 3499,
      "Ġsiyosa": 3500,
      "Ġislo": 3501,
      "Ġinstitu": 3502,
      "Ġton": 3503,
      "pchilik": 3504,
      "ĠOdam": 3505,
      "Ġnihoyat": 3506,
      ",,": 3507,
      "ray": 3508,
      "tadigan": 3509,
      "tat": 3510,
      "Ġtomonga": 3511,
      "Ġhujjatlari": 3512,
      "aydi": 3513,
      "lmaydigan": 3514,
      "05": 3515,
      "Ġsamarador": 3516,
      "ĠLo": 3517,
      "luk": 3518,
      "Ġtiki": 3519,
      "SS": 3520,
      "ayx": 3521,
      "Ġdehqon": 3522,
      "dis": 3523,
      "ĠTar": 3524,
      "Ġnaq": 3525,
      "rita": 3526,
      "Ġyorug": 3527,
      "Ġtransport": 3528,
      "ndan": 3529,
      "Ġdir": 3530,
      "Ġyillik": 3531,
      "Ġayni": 3532,
      "yuter": 3533,
      "34": 3534,
      "Ġhov": 3535,
      "Ġkeladigan": 3536,
      "Ġyozib": 3537,
      "Ġyozilgan": 3538,
      "Ġtala": 3539,
      "ina": 3540,
      "Ġpartiya": 3541,
      "dga": 3542,
      "tsiy": 3543,
      "Ð½Ð¸Ð½Ð³": 3544,
      "Ġyuridik": 3545,
      "rav": 3546,
      "zara": 3547,
      "sirida": 3548,
      "usxa": 3549,
      "Ġshahri": 3550,
      "Ġiqtisodiyot": 3551,
      "SO": 3552,
      "Ġusullari": 3553,
      "EK": 3554,
      "Me": 3555,
      "mul": 3556,
      "Ġlavo": 3557,
      "Ġjamg": 3558,
      "Ġuniversi": 3559,
      "dil": 3560,
      "sub": 3561,
      "Ġtomondan": 3562,
      "Ġmamlakati": 3563,
      "dini": 3564,
      "Ġmillat": 3565,
      "larim": 3566,
      "linib": 3567,
      "pog": 3568,
      "zli": 3569,
      "qiqa": 3570,
      "NI": 3571,
      "Ġtuzilgan": 3572,
      "kabr": 3573,
      "Ġochib": 3574,
      "Ġharakati": 3575,
      "Ġ90": 3576,
      "rel": 3577,
      "Ġzarra": 3578,
      "pul": 3579,
      "erv": 3580,
      "nÑĭx": 3581,
      "diya": 3582,
      "ĠJi": 3583,
      "ĠSuv": 3584,
      "ĠAk": 3585,
      "GI": 3586,
      "mand": 3587,
      "ÑģÐ¸": 3588,
      "38": 3589,
      "Ġoldiga": 3590,
      "format": 3591,
      "Ġfikri": 3592,
      "Ġsolib": 3593,
      "ler": 3594,
      "Ġilk": 3595,
      "Ġtem": 3596,
      "qobat": 3597,
      "Ġshuni": 3598,
      "Ġbiron": 3599,
      "77": 3600,
      "Ġ*": 3601,
      "gon": 3602,
      "Ġketma": 3603,
      "chil": 3604,
      "ĠMan": 3605,
      "Ġhisobiga": 3606,
      "Ġustun": 3607,
      "ĠBoshqa": 3608,
      "Ġtibbiy": 3609,
      "Ġimzo": 3610,
      "zlik": 3611,
      "Ġmajbur": 3612,
      "Ġiq": 3613,
      "Ġtortib": 3614,
      "liqni": 3615,
      "ĠYi": 3616,
      "mos": 3617,
      "zlash": 3618,
      "OH": 3619,
      "Ġbizning": 3620,
      "ssa": 3621,
      "Ġoperatsiya": 3622,
      "niki": 3623,
      "Ġbiroz": 3624,
      "ĠXX": 3625,
      "ĠFarg": 3626,
      "100": 3627,
      "gal": 3628,
      "Ġchiqishi": 3629,
      "Ġpreziden": 3630,
      "Ġagent": 3631,
      "rsatib": 3632,
      "yiq": 3633,
      "idan": 3634,
      "yxa": 3635,
      "sep": 3636,
      "Ġkishilar": 3637,
      "Ġobyek": 3638,
      "Ġfut": 3639,
      "Ġtarqalgan": 3640,
      "Ġaktiv": 3641,
      "Ġjins": 3642,
      "Ġdiniy": 3643,
      "ttifo": 3644,
      "lumotlarni": 3645,
      "Ġ70": 3646,
      "Ġkm": 3647,
      "yatsiya": 3648,
      "qay": 3649,
      "Ġbelgilanadi": 3650,
      "ĠXorazm": 3651,
      "ĠKu": 3652,
      "55": 3653,
      "Ġbyud": 3654,
      "Ġeg": 3655,
      "ðŁ": 3656,
      "cho": 3657,
      "Ġmiqdorda": 3658,
      "era": 3659,
      "Ġ80": 3660,
      "Ġjiddiy": 3661,
      "ziy": 3662,
      "ASI": 3663,
      "Ġildi": 3664,
      "ĠNatija": 3665,
      "Ġmaslahat": 3666,
      "Ba": 3667,
      "Ch": 3668,
      "LIK": 3669,
      "Ġvakolat": 3670,
      "pozi": 3671,
      "Ġoldini": 3672,
      "ologiya": 3673,
      "ĠBer": 3674,
      "Ġchiqarib": 3675,
      "Ġmazmuni": 3676,
      "Ġpedagogik": 3677,
      "Ġijodiy": 3678,
      "iqtisodiy": 3679,
      "taraf": 3680,
      "qoq": 3681,
      "Ġqili": 3682,
      "rian": 3683,
      "Ġparcha": 3684,
      "Ġqam": 3685,
      "Ġmuhoka": 3686,
      "ĠÐŁ": 3687,
      "tensi": 3688,
      "gust": 3689,
      "Ġnusxa": 3690,
      "Ġbering": 3691,
      "ktab": 3692,
      "Ġmun": 3693,
      "Ġsari": 3694,
      "Ġyonda": 3695,
      "Ġnutq": 3696,
      "DI": 3697,
      "čĊĠ": 3698,
      "eksiya": 3699,
      "sen": 3700,
      "Ġtutilgan": 3701,
      "ĠØ": 3702,
      "struksiya": 3703,
      "Ġbekor": 3704,
      "gov": 3705,
      "vara": 3706,
      "Ġhujjatlar": 3707,
      "mg": 3708,
      "Ġmisol": 3709,
      "laymiz": 3710,
      "hol": 3711,
      "qara": 3712,
      "Ġsafar": 3713,
      "ĠHozirgi": 3714,
      "Ġedilar": 3715,
      "Ġketish": 3716,
      "Ðĳ": 3717,
      "ĠIslom": 3718,
      "Ġshuning": 3719,
      "navi": 3720,
      "rinishi": 3721,
      "Ġjamiyati": 3722,
      "tarib": 3723,
      "----": 3724,
      "atan": 3725,
      "EN": 3726,
      "merika": 3727,
      "Ġab": 3728,
      "harakat": 3729,
      "lla": 3730,
      "diga": 3731,
      "Ġdaraxt": 3732,
      "ĠInson": 3733,
      "Ġxayo": 3734,
      "ard": 3735,
      "alla": 3736,
      "Ġishtiroki": 3737,
      "qim": 3738,
      "lashni": 3739,
      "sko": 3740,
      "Ġmuvaffaqi": 3741,
      "Ġmut": 3742,
      "Ġdoim": 3743,
      "Ġï¿½ï¿½ï¿½ï¿½ï¿½ï¿½ï¿½": 3744,
      "dirish": 3745,
      "Ġkuy": 3746,
      "oÐ²": 3747,
      "grafiya": 3748,
      "Ġyilning": 3749,
      "net": 3750,
      "hr": 3751,
      "Ġ!": 3752,
      "Ġijobiy": 3753,
      "Ġkeltirib": 3754,
      "radigan": 3755,
      "Ġbois": 3756,
      "Ġtashlab": 3757,
      "Ġ36": 3758,
      "48": 3759,
      "Ġatrofida": 3760,
      "yad": 3761,
      "chining": 3762,
      "zgarishlar": 3763,
      "yoz": 3764,
      "Ġmazm": 3765,
      "Ġbaza": 3766,
      "Ġistiq": 3767,
      "Ġtopshiriq": 3768,
      "ĠâĢĶâĢĶ": 3769,
      "loti": 3770,
      "nomasi": 3771,
      "ĠOy": 3772,
      "Ġyut": 3773,
      "Ġhafta": 3774,
      "Ġdeyarli": 3775,
      "Ġmuso": 3776,
      "unon": 3777,
      "Ġodatda": 3778,
      "stlar": 3779,
      "sharo": 3780,
      "Ġadabiy": 3781,
      "Ġtushdi": 3782,
      "Ġhujum": 3783,
      "yotganini": 3784,
      "rang": 3785,
      "Ġbizga": 3786,
      "Ġsp": 3787,
      "Ġreji": 3788,
      "Ġdemo": 3789,
      "Ġtirik": 3790,
      "lumotlari": 3791,
      "Ġqolib": 3792,
      "olo": 3793,
      "tabi": 3794,
      "tali": 3795,
      "Ġekanligi": 3796,
      "jtimoiy": 3797,
      "Ġhikoya": 3798,
      "Ġmuddat": 3799,
      "Ġolishga": 3800,
      "ĠMilliy": 3801,
      "ĠTA": 3802,
      "Ġyurish": 3803,
      "Ġisloho": 3804,
      "ubha": 3805,
      "Ġqor": 3806,
      "Ni": 3807,
      "ĠXitoy": 3808,
      "ĠCha": 3809,
      "tiladigan": 3810,
      "ĠLa": 3811,
      "Ġaniqlangan": 3812,
      "Ġsubyekt": 3813,
      "Ġehtimo": 3814,
      "Ġindi": 3815,
      "ĠXudo": 3816,
      "Ġnizo": 3817,
      "Ġpan": 3818,
      "Ġkito": 3819,
      "yili": 3820,
      "habbat": 3821,
      "Ġkir": 3822,
      "Ġjism": 3823,
      "âĢĺâĢĻ": 3824,
      "Ġyetkazib": 3825,
      "Ġajralib": 3826,
      "32": 3827,
      "tra": 3828,
      "Ġturmush": 3829,
      "âĢĿ.": 3830,
      "ordi": 3831,
      "Ġkimyoviy": 3832,
      "Ġborgan": 3833,
      "tam": 3834,
      "rinib": 3835,
      "Ġtaraqqiyot": 3836,
      "Ġqatori": 3837,
      "42": 3838,
      "Ġbuning": 3839,
      "39": 3840,
      "Ġprinsi": 3841,
      "Ġ196": 3842,
      "Ġtanqi": 3843,
      "Ġrasm": 3844,
      "chka": 3845,
      "ishloq": 3846,
      "Ġsaqlab": 3847,
      "Ġfir": 3848,
      "Ġhamkorlik": 3849,
      "Ġovoz": 3850,
      "Ġdon": 3851,
      "rix": 3852,
      "jorat": 3853,
      "Ġbaxt": 3854,
      "shu": 3855,
      "Ġyot": 3856,
      "gida": 3857,
      "lanishini": 3858,
      "Ġkelayotgan": 3859,
      "yatli": 3860,
      "ez": 3861,
      "tibo": 3862,
      "Ġjiha": 3863,
      "Ġaynan": 3864,
      "Ð»a": 3865,
      "Ġqaraganda": 3866,
      "Ġvakillari": 3867,
      "luvchi": 3868,
      "Ġhammasi": 3869,
      "mot": 3870,
      "ĠLi": 3871,
      "mom": 3872,
      "Ġmasalalar": 3873,
      "Ġajratib": 3874,
      "Ġaytish": 3875,
      "Ġpala": 3876,
      "Ġif": 3877,
      "sik": 3878,
      "Ġmasalalari": 3879,
      "rator": 3880,
      "Ġkredit": 3881,
      "Ġtafak": 3882,
      "gori": 3883,
      "Ġshifo": 3884,
      "ruq": 3885,
      "Ġmajburiyat": 3886,
      "Ġyuragi": 3887,
      "Ġbartaraf": 3888,
      "Ġsul": 3889,
      "ĠÑģ": 3890,
      "ifa": 3891,
      "Ġnarsani": 3892,
      "ĠGul": 3893,
      "Ġshaklida": 3894,
      "Ġpol": 3895,
      "simliklar": 3896,
      "ĠBola": 3897,
      "Ġmahsulotlari": 3898,
      "uqu": 3899,
      "Ġ...": 3900,
      "ppa": 3901,
      "Ġmunosabati": 3902,
      "ĠAQSH": 3903,
      "Ġishni": 3904,
      "kni": 3905,
      "Ġqalin": 3906,
      "Ġyum": 3907,
      "Ġyaratilgan": 3908,
      "Ġmansub": 3909,
      "ci": 3910,
      "Ġver": 3911,
      "Ġisbot": 3912,
      "Ġï¿½ï¿½ï¿½ï¿½ï¿½": 3913,
      "ramiz": 3914,
      "Ġtadbirkor": 3915,
      "plam": 3916,
      "rinadi": 3917,
      "ed": 3918,
      "voh": 3919,
      "eta": 3920,
      "Ġ197": 3921,
      "sosiy": 3922,
      "lararo": 3923,
      "qini": 3924,
      "Ġturar": 3925,
      "rinbo": 3926,
      ".-": 3927,
      "Ġraqa": 3928,
      "Ġbiroq": 3929,
      "Ġzona": 3930,
      "quvchilar": 3931,
      "tkir": 3932,
      "Ġdaqiqa": 3933,
      "tet": 3934,
      "Ġhududi": 3935,
      "Ġbugun": 3936,
      "Ġtuzilma": 3937,
      "Ġyozuv": 3938,
      "Ð³a": 3939,
      "Ġshahrida": 3940,
      "ĠPar": 3941,
      "ĠMA": 3942,
      "Ġqismida": 3943,
      "giga": 3944,
      "Ġoldingi": 3945,
      "Ġnon": 3946,
      "oyib": 3947,
      "41": 3948,
      "nab": 3949,
      "kva": 3950,
      "Ġrioya": 3951,
      "pka": 3952,
      "Ġalay": 3953,
      "qima": 3954,
      "Ġoksi": 3955,
      "sur": 3956,
      "So": 3957,
      "ĠVo": 3958,
      "Ġraqobat": 3959,
      "Ġshunga": 3960,
      "Ġjoyda": 3961,
      "viga": 3962,
      "dod": 3963,
      "Ġajratish": 3964,
      "vod": 3965,
      "Ġmusul": 3966,
      "Ġqadriyat": 3967,
      "zlarni": 3968,
      "Ġqilishni": 3969,
      "riyati": 3970,
      "ĠÐ¾": 3971,
      "tardi": 3972,
      "Ġoyi": 3973,
      "Ġtuzish": 3974,
      "Ġqul": 3975,
      "Ġrost": 3976,
      "str": 3977,
      "Ġbugungi": 3978,
      "bin": 3979,
      "ĠSharq": 3980,
      "ĠOl": 3981,
      "pik": 3982,
      "Ġetishga": 3983,
      "rog": 3984,
      "Ġqahramon": 3985,
      "Ġerishish": 3986,
      "sish": 3987,
      "Ġsistema": 3988,
      "voy": 3989,
      "Ġraz": 3990,
      "jxona": 3991,
      "Ġdona": 3992,
      "Ġhissa": 3993,
      "lidir": 3994,
      "Ġxay": 3995,
      "likdagi": 3996,
      "Ġxoh": 3997,
      "demiya": 3998,
      "parvar": 3999,
      "sar": 4000,
      "Ġmuz": 4001,
      "ĠUnda": 4002,
      "Qa": 4003,
      "Ġyillarda": 4004,
      "Ġtushadi": 4005,
      "Ġsto": 4006,
      "Ġqismini": 4007,
      "Ġdastu": 4008,
      "ĠÐ°": 4009,
      "ovqat": 4010,
      "rilishini": 4011,
      "luksiz": 4012,
      "Ġbazasi": 4013,
      "rol": 4014,
      "erma": 4015,
      "Òĵ": 4016,
      "Ġpat": 4017,
      "lanishiga": 4018,
      "ĠKat": 4019,
      "Ġboshlang": 4020,
      "lisi": 4021,
      "nasi": 4022,
      "lashtirib": 4023,
      "roy": 4024,
      "yanch": 4025,
      "ES": 4026,
      "salar": 4027,
      "lcham": 4028,
      "ÙĦ": 4029,
      "ldir": 4030,
      "Ġstrate": 4031,
      "ĠPrezidentining": 4032,
      "Ġxam": 4033,
      "ĠFaqat": 4034,
      "tilib": 4035,
      "Mu": 4036,
      "Ġïĥ": 4037,
      "zgu": 4038,
      "tifi": 4039,
      "Ġumuman": 4040,
      "Ġmusulmon": 4041,
      "Ð¼Ð°": 4042,
      "Ġoxirgi": 4043,
      "Ġmahalla": 4044,
      "bal": 4045,
      "Ġishlarini": 4046,
      "Ġsalbiy": 4047,
      "Ġommaviy": 4048,
      "Ġgrafi": 4049,
      "Ġgapir": 4050,
      "Ġushlab": 4051,
      "Ġchar": 4052,
      "Ġshamol": 4053,
      "sand": 4054,
      "ndijon": 4055,
      "Ka": 4056,
      "ÑĤa": 4057,
      "haza": 4058,
      "Ġyuldu": 4059,
      "zdan": 4060,
      "Ġkiritilgan": 4061,
      "Ġsekin": 4062,
      "piya": 4063,
      "Ġnafaqat": 4064,
      "Ġdengiz": 4065,
      "Ġsenga": 4066,
      "Ġatom": 4067,
      "Ġnega": 4068,
      "ngda": 4069,
      "rd": 4070,
      "Ġuzunligi": 4071,
      "Ġix": 4072,
      "qalpog": 4073,
      "Ġquloq": 4074,
      "ziz": 4075,
      "ĠNatijada": 4076,
      "lganligi": 4077,
      "shqa": 4078,
      "Ġsodda": 4079,
      "Ġbunga": 4080,
      "Ġyillar": 4081,
      "Ġï¿½ï¿½ï¿½ï¿½ï¿½ï¿½ï¿½ï¿½ï¿½ï¿½ï¿½ï¿½ï¿½ï¿½ï¿½ï¿½ï¿½ï¿½ï¿½ï¿½ï¿½ï¿½ï¿½ï¿½ï¿½ï¿½ï¿½ï¿½ï¿½ï¿½ï¿½ï¿½": 4082,
      "Ġnashr": 4083,
      "Ġavvalo": 4084,
      "pen": 4085,
      "Ġkuchlanish": 4086,
      "Ġturdagi": 4087,
      "pla": 4088,
      "ralar": 4089,
      "........": 4090,
      "IYA": 4091,
      "Ġishlarni": 4092,
      "kali": 4093,
      "luq": 4094,
      "Ġboshlaydi": 4095,
      "lisher": 4096,
      "lishga": 4097,
      "Ġtepa": 4098,
      "Ġï¿½ï¿½ï¿½ï¿½ï¿½ï¿½ï¿½ï¿½ï¿½ï¿½ï¿½ï¿½": 4099,
      "Ġolmaydi": 4100,
      "Ġmuhit": 4101,
      "ps": 4102,
      "biga": 4103,
      "aza": 4104,
      "Ġyildan": 4105,
      "Ð¸Ð½": 4106,
      "kiya": 4107,
      "Ġ31": 4108,
      "Ġavtomobil": 4109,
      "jadval": 4110,
      "loqiy": 4111,
      "tirishi": 4112,
      "Ġulu": 4113,
      "Ġjavobgar": 4114,
      "Ġaa": 4115,
      "Ġimkonini": 4116,
      "Ġ(Â«": 4117,
      "dva": 4118,
      "Ġsiyosat": 4119,
      "Ġtamoyil": 4120,
      "davlat": 4121,
      "Ġorzu": 4122,
      "Ġboshlig": 4123,
      "Ġoluvchi": 4124,
      "Ġekanini": 4125,
      "Ġmate": 4126,
      "biri": 4127,
      "Ġtariqa": 4128,
      "Ġmiya": 4129,
      "tamiz": 4130,
      "lilik": 4131,
      "nob": 4132,
      "47": 4133,
      "In": 4134,
      "Ġlar": 4135,
      "Ġuchast": 4136,
      "Ġkuzatiladi": 4137,
      "Ġberadigan": 4138,
      "lashuvi": 4139,
      "Ġoha": 4140,
      "Ġmaf": 4141,
      "zolari": 4142,
      "rinish": 4143,
      "novat": 4144,
      "Ġarab": 4145,
      "Ġyadro": 4146,
      "Ġzaxi": 4147,
      "ĠOq": 4148,
      "ĠJan": 4149,
      "olib": 4150,
      "Ġhurmat": 4151,
      "46": 4152,
      "Ġtibbiyot": 4153,
      "ĠKarimov": 4154,
      "Ġtavsif": 4155,
      "85": 4156,
      "Ġurush": 4157,
      "Ġtak": 4158,
      "Ġmaho": 4159,
      "Ġbelgilab": 4160,
      "stitutsiya": 4161,
      "Ġuslub": 4162,
      "lovi": 4163,
      "Ġtashkilotlar": 4164,
      "Ġyurgan": 4165,
      "Ġchop": 4166,
      "Ġbajar": 4167,
      "Ê»": 4168,
      "Ġyan": 4169,
      "uj": 4170,
      "Ġsek": 4171,
      "fir": 4172,
      "bora": 4173,
      "Ġmiso": 4174,
      "ĠRas": 4175,
      "Ġyashash": 4176,
      "Ġsifati": 4177,
      "Ġsotish": 4178,
      "rinbosari": 4179,
      "Ġxodimlari": 4180,
      "Ġila": 4181,
      "ĠKar": 4182,
      "Ġfutbol": 4183,
      "Ġtomo": 4184,
      "Ġmatn": 4185,
      "ĠFe": 4186,
      "02": 4187,
      "Ġmazmu": 4188,
      "gay": 4189,
      "Ġtanlash": 4190,
      "Ġqarash": 4191,
      "ĠSulton": 4192,
      "shoq": 4193,
      "Ġeksper": 4194,
      "Ġjami": 4195,
      "Ġparda": 4196,
      "Ġqayer": 4197,
      "pti": 4198,
      "Ġxotira": 4199,
      "shiy": 4200,
      "tatsiya": 4201,
      "ĠTurkiston": 4202,
      "Ġolma": 4203,
      "pgina": 4204,
      "ĠNima": 4205,
      "zlariga": 4206,
      "Ġqilishda": 4207,
      "Ġrivojlangan": 4208,
      "Ġrozi": 4209,
      "buot": 4210,
      "Ġvaziri": 4211,
      "lumki": 4212,
      "Ġmux": 4213,
      "Ġquruq": 4214,
      "bri": 4215,
      "rinda": 4216,
      "31": 4217,
      "ĠMav": 4218,
      "uquqiy": 4219,
      "ĠKom": 4220,
      "Ġqaytib": 4221,
      "gul": 4222,
      "Ġstruk": 4223,
      "Ġtarkibiga": 4224,
      "chilarning": 4225,
      "lor": 4226,
      "dni": 4227,
      "Ð¸Ð»": 4228,
      "Ġtezligi": 4229,
      "yoki": 4230,
      "AY": 4231,
      "Ġtuyg": 4232,
      "Ġ[": 4233,
      "Ġmazmun": 4234,
      "Ġtort": 4235,
      "Ġgene": 4236,
      "Ĥ¬": 4237,
      "Ġyakun": 4238,
      "Ġsohi": 4239,
      "talar": 4240,
      "tkaziladi": 4241,
      "ĠKenga": 4242,
      "Ġhokimiyat": 4243,
      "kalar": 4244,
      "Ġport": 4245,
      "tilmagan": 4246,
      "Ġnazariy": 4247,
      "vu": 4248,
      "Ġtempe": 4249,
      "Ġbordi": 4250,
      "ÐŁ": 4251,
      "lsak": 4252,
      "49": 4253,
      "ĠHay": 4254,
      "Ġbud": 4255,
      "kazo": 4256,
      "Ġtahli": 4257,
      "Ġmine": 4258,
      "tosh": 4259,
      "gle": 4260,
      "ldingi": 4261,
      "Ġnaf": 4262,
      "kib": 4263,
      "nati": 4264,
      "Â£": 4265,
      "Ġburchak": 4266,
      "GA": 4267,
      "Ġbori": 4268,
      "hir": 4269,
      "ĠEng": 4270,
      "Ġyuqorida": 4271,
      "kash": 4272,
      "lgach": 4273,
      "vin": 4274,
      "Ġxudo": 4275,
      "naya": 4276,
      "03": 4277,
      "zish": 4278,
      "Ġaylanib": 4279,
      ")-": 4280,
      "shining": 4281,
      "Ġyotgan": 4282,
      "Ġteri": 4283,
      "plami": 4284,
      "Ġasta": 4285,
      "Ġtarkibiy": 4286,
      "Ġtoifa": 4287,
      "fan": 4288,
      "ĠQar": 4289,
      "ner": 4290,
      "Ġqaramay": 4291,
      "čĊĠčĊĠ": 4292,
      "lganini": 4293,
      "lashtiradi": 4294,
      "Ġ37": 4295,
      "Ġvazifasi": 4296,
      "mila": 4297,
      "Ġbilib": 4298,
      "ĠÒ³": 4299,
      "Ġyubordi": 4300,
      "ningiz": 4301,
      "Ġquvvat": 4302,
      "nosti": 4303,
      "Ġidi": 4304,
      "Ġdin": 4305,
      "Va": 4306,
      "Ñĳ": 4307,
      "Ġsev": 4308,
      "loro": 4309,
      "Ġbaro": 4310,
      "dagina": 4311,
      "Ġosmon": 4312,
      "ĠShundan": 4313,
      "Ġtarmog": 4314,
      "Ġkuzat": 4315,
      "omala": 4316,
      "ratsiyasi": 4317,
      "ĠOlim": 4318,
      "ÑĢÐ°": 4319,
      "ubiy": 4320,
      "Ġgar": 4321,
      "llarini": 4322,
      "Ġqizil": 4323,
      "Ġkirgan": 4324,
      "Xo": 4325,
      "Ġyozgan": 4326,
      "vq": 4327,
      "pÐ¸": 4328,
      "amla": 4329,
      "Ġunum": 4330,
      "Ġhukumat": 4331,
      "let": 4332,
      "ĠFran": 4333,
      "liklarni": 4334,
      "kitob": 4335,
      "Ġparam": 4336,
      "zik": 4337,
      "Ġmunosabatlar": 4338,
      "usi": 4339,
      "Ġmobay": 4340,
      "Ġalla": 4341,
      "Ġsohasidagi": 4342,
      "ĠKor": 4343,
      "Ġtarkib": 4344,
      "mlar": 4345,
      "Ġfay": 4346,
      "ĠÑĥ": 4347,
      "co": 4348,
      "Ġsano": 4349,
      "AK": 4350,
      "Ġ2021": 4351,
      "Ġ38": 4352,
      "Ġangla": 4353,
      "Ġuchta": 4354,
      "Ġboshlagan": 4355,
      "Ja": 4356,
      "Ġshundan": 4357,
      "ĠTabi": 4358,
      "Ġfoydalanib": 4359,
      "izza": 4360,
      "Ġsurat": 4361,
      "Ġtuza": 4362,
      "sangiz": 4363,
      "voza": 4364,
      "kammal": 4365,
      "ladilar": 4366,
      "Ġsun": 4367,
      "Ġdushman": 4368,
      "minan": 4369,
      "pan": 4370,
      "Ġuzluksiz": 4371,
      "Ġsotsi": 4372,
      "Ġraisi": 4373,
      "Ġbob": 4374,
      "Ġjil": 4375,
      "ere": 4376,
      "Ġnay": 4377,
      "noda": 4378,
      "ylik": 4379,
      "Ġmasalan": 4380,
      "Ġvoz": 4381,
      "ĠMos": 4382,
      "ĠVi": 4383,
      "Ġdarajasini": 4384,
      "Ġoqibat": 4385,
      "Ġsah": 4386,
      "Ġhududida": 4387,
      "43": 4388,
      "Ġuskuna": 4389,
      "lolat": 4390,
      "Ġmuhokama": 4391,
      "sad": 4392,
      "Ġïģ": 4393,
      "Ġtopib": 4394,
      "ris": 4395,
      "sii": 4396,
      "ĠOta": 4397,
      "ĠElekt": 4398,
      "ĠFi": 4399,
      "ktor": 4400,
      "xum": 4401,
      "uniy": 4402,
      "Ġmutla": 4403,
      "Ġoltin": 4404,
      "ĠXalqaro": 4405,
      "kraina": 4406,
      "ĠUlug": 4407,
      "sizmi": 4408,
      "Ġgav": 4409,
      "Ð³Ð°Ð½": 4410,
      "Ġkiyim": 4411,
      "Ġqirg": 4412,
      "Ġraqami": 4413,
      "UL": 4414,
      "Ġkompleks": 4415,
      "ĠNizo": 4416,
      "Ġ000": 4417,
      "Ġkirishi": 4418,
      "Ġit": 4419,
      "ambar": 4420,
      "ax": 4421,
      "ĠMusta": 4422,
      "rifi": 4423,
      "dori": 4424,
      "ĠMoliya": 4425,
      "anda": 4426,
      "Ġaytdi": 4427,
      "Ġikkala": 4428,
      "Ġip": 4429,
      "IZ": 4430,
      "zilma": 4431,
      "Ġdeganda": 4432,
      "ngina": 4433,
      "Ġmuallif": 4434,
      "Ġï¿½ï¿½ï¿½ï¿½ï¿½ï¿½ï¿½ï¿½ï¿½": 4435,
      "Ġburcha": 4436,
      "tiqo": 4437,
      "lashdi": 4438,
      "lansin": 4439,
      "shat": 4440,
      "ĠâĪ": 4441,
      "gur": 4442,
      "Ġmobaynida": 4443,
      "ĠAd": 4444,
      "Ġadolat": 4445,
      "onlar": 4446,
      "Ġyoshlar": 4447,
      "Ġ55": 4448,
      "band": 4449,
      "Ġturardi": 4450,
      "Ġem": 4451,
      "Ġrag": 4452,
      "Ġmon": 4453,
      "layman": 4454,
      "Ġmarkaziy": 4455,
      "guncha": 4456,
      "mita": 4457,
      "ISH": 4458,
      "Ġbirov": 4459,
      "Ġtexnologik": 4460,
      "ĠUch": 4461,
      "Ð·Ð¸": 4462,
      "Ġyozuvchi": 4463,
      "gun": 4464,
      "poq": 4465,
      "Ġqarz": 4466,
      "ĠDast": 4467,
      "Ġshubha": 4468,
      "xil": 4469,
      "Ġqilar": 4470,
      "Ġsharoitida": 4471,
      "Ho": 4472,
      "Ġusto": 4473,
      "zrat": 4474,
      "Bi": 4475,
      "jam": 4476,
      "vati": 4477,
      "yaga": 4478,
      "ĠAhmad": 4479,
      "Ġyuritish": 4480,
      "Ġkuzatish": 4481,
      "Ġtola": 4482,
      "mlik": 4483,
      "Ġqola": 4484,
      "Ġjoylarda": 4485,
      "Ġbirlash": 4486,
      "Ġalayhi": 4487,
      "asi": 4488,
      "jab": 4489,
      "Ġquyosh": 4490,
      "Ġkadr": 4491,
      "tlarni": 4492,
      "Ġpor": 4493,
      "Ġzahar": 4494,
      "Ġomillar": 4495,
      "Ġqonunchilik": 4496,
      "ĠJu": 4497,
      "Ġjuft": 4498,
      "yla": 4499,
      "alaba": 4500,
      "minlaydi": 4501,
      "Ġhokazo": 4502,
      "Ġyakka": 4503,
      "Ġoladigan": 4504,
      "dining": 4505,
      "diri": 4506,
      "07": 4507,
      "Ġadabiyoti": 4508,
      "Ġchol": 4509,
      "ĠZo": 4510,
      "Ġulkan": 4511,
      "rnatilgan": 4512,
      "Ġkeltirish": 4513,
      "qiq": 4514,
      "Ġtarjima": 4515,
      "Ġnashri": 4516,
      "Ġtashab": 4517,
      "Ġtomir": 4518,
      "mang": 4519,
      "Ġishlov": 4520,
      "Ġamir": 4521,
      "Ġ2020": 4522,
      "ĠÐ¨": 4523,
      "Ġmusobaqa": 4524,
      "bus": 4525,
      "zov": 4526,
      "Ġavvalgi": 4527,
      "bag": 4528,
      "Ġxizmatlar": 4529,
      "nost": 4530,
      "ordinat": 4531,
      "qiqat": 4532,
      "ley": 4533,
      "-âĢĶ": 4534,
      "teti": 4535,
      "Ġqilayotgan": 4536,
      "Ġrav": 4537,
      "Ġmexanizm": 4538,
      "Ġting": 4539,
      "Ġkodek": 4540,
      "bro": 4541,
      "nom": 4542,
      "Ġkompyuter": 4543,
      "NING": 4544,
      "Ġnavbatida": 4545,
      "Ġamaliyot": 4546,
      "Ġvah": 4547,
      "fil": 4548,
      "chini": 4549,
      "Ġaksiya": 4550,
      "zak": 4551,
      "Ġmet": 4552,
      "nayotgan": 4553,
      "ĠQonunchilik": 4554,
      "ĠMash": 4555,
      "rus": 4556,
      "ĠBuni": 4557,
      "zmi": 4558,
      "Ġbiznes": 4559,
      "Ġdep": 4560,
      "tayotgan": 4561,
      "stven": 4562,
      "lidagi": 4563,
      "Ġ42": 4564,
      "yillarda": 4565,
      "arb": 4566,
      "Ġhosi": 4567,
      "Ġyov": 4568,
      "Ġvazifasini": 4569,
      "zlashtirish": 4570,
      "Ġnat": 4571,
      "TA": 4572,
      "Ġqadr": 4573,
      "Ġfaoliyatining": 4574,
      "Ġvarian": 4575,
      "oyat": 4576,
      "Ġjaro": 4577,
      "Ġinqi": 4578,
      "Ġkeyinchalik": 4579,
      "Ġyurib": 4580,
      "menti": 4581,
      "Ġbari": 4582,
      "kura": 4583,
      "Ġqavat": 4584,
      "Ġbarg": 4585,
      "ĠAlisher": 4586,
      "eri": 4587,
      "ĠSov": 4588,
      "Ġekologik": 4589,
      "ĠBal": 4590,
      "lle": 4591,
      "MA": 4592,
      "Ġ32": 4593,
      "Ġeshit": 4594,
      "Ġqiziq": 4595,
      "Ġhisoblangan": 4596,
      "Ġbarpo": 4597,
      "Ġmaydoni": 4598,
      "yov": 4599,
      "indiston": 4600,
      "Ġyutuq": 4601,
      "ren": 4602,
      "Ġkonsent": 4603,
      "Ġerdi": 4604,
      "unk": 4605,
      "Ġxul": 4606,
      "ĠAli": 4607,
      "sincha": 4608,
      "nar": 4609,
      "Ġharaka": 4610,
      "Siz": 4611,
      "Ġtun": 4612,
      "Ġnomli": 4613,
      "mayman": 4614,
      "bog": 4615,
      "Ġegi": 4616,
      "nÑĭe": 4617,
      "shik": 4618,
      "Ġmuko": 4619,
      "mud": 4620,
      "Ġtutib": 4621,
      "Ġoshiradi": 4622,
      "Ġhududiy": 4623,
      "Ġnas": 4624,
      "Ġruhiy": 4625,
      "Ġbelgilash": 4626,
      "ĠÑĲ": 4627,
      "matika": 4628,
      "OZ": 4629,
      "Ġdoimo": 4630,
      "stvo": 4631,
      "gim": 4632,
      "ck": 4633,
      "Ġkay": 4634,
      "Ġbobo": 4635,
      "Ġkundan": 4636,
      "Ġyelka": 4637,
      "Ġzim": 4638,
      "Ð½a": 4639,
      "ĠïĢ½": 4640,
      "llanma": 4641,
      "siv": 4642,
      "Ġboshqaruvi": 4643,
      "Ġumr": 4644,
      "sus": 4645,
      "Ġshoh": 4646,
      "Ġguvoh": 4647,
      "ming": 4648,
      "Ġtasvi": 4649,
      "Ġchiqarilgan": 4650,
      "Ġbaliq": 4651,
      "CHI": 4652,
      "ĠÐ³": 4653,
      "eva": 4654,
      "Ġfoydali": 4655,
      "ldim": 4656,
      "Ġdasturi": 4657,
      "xud": 4658,
      "uvor": 4659,
      "Ġprots": 4660,
      "Ġmetr": 4661,
      "Ñħ": 4662,
      "ĠRu": 4663,
      "Ġtashvi": 4664,
      "Ġisi": 4665,
      "Ġoqibatida": 4666,
      "Ġaytganda": 4667,
      "Ġmuddati": 4668,
      "Ġdiqqat": 4669,
      "Ġqaroriga": 4670,
      "Ġkuchini": 4671,
      "Ġqov": 4672,
      "lardir": 4673,
      "Ġmax": 4674,
      "Ġmuqa": 4675,
      "Ġhisobot": 4676,
      "llohu": 4677,
      "chalari": 4678,
      "Ġuchrashuv": 4679,
      "ermaniya": 4680,
      "ca": 4681,
      "Ġqisqar": 4682,
      "Ġketib": 4683,
      "Ġ09": 4684,
      "Ġbutunlay": 4685,
      "shunoslik": 4686,
      "ĠSar": 4687,
      "lchash": 4688,
      "Ġtish": 4689,
      "yob": 4690,
      "ĠMehnat": 4691,
      "Ġdis": 4692,
      "Ġkoeffitsiy": 4693,
      "Ġtomosha": 4694,
      "kratik": 4695,
      "ĠUy": 4696,
      "Ġdemak": 4697,
      "ĠÐĵ": 4698,
      "Ġdalolat": 4699,
      "ĠRi": 4700,
      "Ġ195": 4701,
      "ilova": 4702,
      "Ġoyog": 4703,
      "hifa": 4704,
      "Ġruh": 4705,
      "Ġgum": 4706,
      "Ġinsonning": 4707,
      "Ġdavlatlar": 4708,
      "ĠHamma": 4709,
      "Ġhokimiyati": 4710,
      "2021": 4711,
      "Ġindivi": 4712,
      "ĠAQSh": 4713,
      "ĠÃ": 4714,
      "Ġrangi": 4715,
      "Ġqanchalik": 4716,
      "ĠOna": 4717,
      "Ġbildiradi": 4718,
      "Ġqabi": 4719,
      "Ġborasida": 4720,
      "Ġtub": 4721,
      "Ġmukammal": 4722,
      "Ġixtisos": 4723,
      "Ġqilamiz": 4724,
      "ĠÑŀ": 4725,
      "ĠTer": 4726,
      "Ġaholining": 4727,
      "Ġdarajasiga": 4728,
      "Ð¾Ð½": 4729,
      "Ġdevo": 4730,
      "Ġdiff": 4731,
      "Ġ48": 4732,
      "Ġtadbirkorlik": 4733,
      "Ġortiqcha": 4734,
      "Ġsoch": 4735,
      "Ġ46": 4736,
      "OK": 4737,
      "ĠAbdulla": 4738,
      "arang": 4739,
      "lav": 4740,
      "Ġularda": 4741,
      "sidir": 4742,
      "Ġoraliq": 4743,
      "Ġbinoan": 4744,
      "Ġseni": 4745,
      "Ġbuz": 4746,
      "zanat": 4747,
      "Ġmetodi": 4748,
      "Ġkutub": 4749,
      "Ġqolishi": 4750,
      "Biz": 4751,
      ".(": 4752,
      "Ġvafot": 4753,
      "zlarining": 4754,
      "ziyo": 4755,
      "Ġtemperatura": 4756,
      "qarshi": 4757,
      "rilish": 4758,
      "munikatsiya": 4759,
      "ĠPi": 4760,
      "texnika": 4761,
      "nii": 4762,
      "Ġxatboshi": 4763,
      "Ġeritma": 4764,
      "ĠvÑĭ": 4765,
      "Ġhayda": 4766,
      "):": 4767,
      "omet": 4768,
      "Ġboshini": 4769,
      "zlarning": 4770,
      "lashtiriladi": 4771,
      "Ġ2017": 4772,
      "ĠUnga": 4773,
      "Ġfalsafa": 4774,
      "Ġyurt": 4775,
      "Ġlek": 4776,
      "raman": 4777,
      "97": 4778,
      "Ġxarajatlar": 4779,
      "ĠUz": 4780,
      "Ġbojxona": 4781,
      "Ġmajburiy": 4782,
      "Ġchidam": 4783,
      "Ġtat": 4784,
      "essor": 4785,
      "Ġkash": 4786,
      "ĠSay": 4787,
      "ĠGi": 4788,
      "dqi": 4789,
      "lchov": 4790,
      "liklarini": 4791,
      "zog": 4792,
      "Ġshaxsning": 4793,
      "dob": 4794,
      "Ġkafo": 4795,
      "rig": 4796,
      "qida": 4797,
      "ĠVatan": 4798,
      "Ġstati": 4799,
      "ĠMay": 4800,
      "Ra": 4801,
      "roda": 4802,
      "Ġbanki": 4803,
      "Ġxolos": 4804,
      "virus": 4805,
      "Ġolti": 4806,
      "Ġkomissiya": 4807,
      "Ġodat": 4808,
      "Ġguno": 4809,
      "Ġfuqarolar": 4810,
      "shdi": 4811,
      "Ġasarlar": 4812,
      "lmasdan": 4813,
      "dlik": 4814,
      "stva": 4815,
      "Ġustuvor": 4816,
      "Ġco": 4817,
      "Ġkorxonalar": 4818,
      "Ġkutubxona": 4819,
      "Ġï¿½ï¿½ï¿½": 4820,
      "Ġboshlanadi": 4821,
      "Ġasrning": 4822,
      "Ġmustahkamlash": 4823,
      "ĠAda": 4824,
      "?Â»": 4825,
      "ĠÐ¹": 4826,
      "Pa": 4827,
      "ĠOr": 4828,
      "masin": 4829,
      "ĠSir": 4830,
      "Ġqanda": 4831,
      "Ġtaqdirda": 4832,
      "ust": 4833,
      "ĠEl": 4834,
      "ĠShunda": 4835,
      "Ġintegra": 4836,
      "ĠMirzo": 4837,
      "ÑĤÐ°": 4838,
      "Ġsizga": 4839,
      "Ð»Ð°ÑĢÐ¸": 4840,
      "gno": 4841,
      "evral": 4842,
      "Ġxotini": 4843,
      "AQ": 4844,
      "ĠFan": 4845,
      "tiyot": 4846,
      "ydigan": 4847,
      "Ġaylanadi": 4848,
      "Ġchin": 4849,
      "Ġugle": 4850,
      "mli": 4851,
      "yos": 4852,
      "Ġsinov": 4853,
      "red": 4854,
      "ĠXusu": 4855,
      "oda": 4856,
      "Ġhukmron": 4857,
      "Ġdaf": 4858,
      "Ġnarxi": 4859,
      "Ġfazi": 4860,
      "rayotgan": 4861,
      "Ġchoy": 4862,
      "ngliz": 4863,
      "Ġlug": 4864,
      "Ġmateriallar": 4865,
      "Ġvalyu": 4866,
      "moliy": 4867,
      "ID": 4868,
      "Ġkapital": 4869,
      "Ġqadimgi": 4870,
      "smon": 4871,
      "Ke": 4872,
      "98": 4873,
      "Ġyoshi": 4874,
      "empi": 4875,
      "Ġkva": 4876,
      "rtinchi": 4877,
      "pov": 4878,
      "Ġqiling": 4879,
      "Ġjihatidan": 4880,
      "Ġsaylov": 4881,
      "Ġchiqaruvchi": 4882,
      "pak": 4883,
      "Ġmulohaza": 4884,
      "78": 4885,
      "tilayotgan": 4886,
      "stal": 4887,
      "Ġpaytida": 4888,
      "rnini": 4889,
      "Ġ500": 4890,
      "Ġdala": 4891,
      "Ġmoy": 4892,
      "Ð¸Ð¹": 4893,
      "Ġxarakteri": 4894,
      "suv": 4895,
      "ruv": 4896,
      "Ġdavlati": 4897,
      "Ġmuomala": 4898,
      "midan": 4899,
      "Ġyax": 4900,
      "Ġturishi": 4901,
      "ildi": 4902,
      "Ġ^": 4903,
      "dak": 4904,
      "Ġariza": 4905,
      "ser": 4906,
      "mit": 4907,
      "Ġyozish": 4908,
      "lashning": 4909,
      "ani": 4910,
      "Ġasarlari": 4911,
      "Ġneft": 4912,
      "Ð²a": 4913,
      "Ġnuqtayi": 4914,
      "Ġqarama": 4915,
      "Ġislom": 4916,
      "Ġmuddatli": 4917,
      "Ġuchastka": 4918,
      "Ġfaza": 4919,
      "tazam": 4920,
      "kum": 4921,
      "Ġqurilishi": 4922,
      "Ġ2019": 4923,
      "Ġyoshga": 4924,
      "Ġkerakli": 4925,
      "Ġbirdan": 4926,
      "Ġkamchilik": 4927,
      "malarni": 4928,
      "Ġuzi": 4929,
      "Ġnerv": 4930,
      "Ġborayotgan": 4931,
      "Ġoralig": 4932,
      "Ġyugu": 4933,
      "midi": 4934,
      "lashishi": 4935,
      "âĢĺ.": 4936,
      "Ġoqsil": 4937,
      "Ġnechta": 4938,
      "Ġ2000": 4939,
      "ĠQoraqalpog": 4940,
      "nya": 4941,
      "Ġumid": 4942,
      "Ġbat": 4943,
      "Ġayta": 4944,
      "Ġnatijalari": 4945,
      "Ġilg": 4946,
      "tlarning": 4947,
      "ÑĩÐ¸": 4948,
      "ĠAxborot": 4949,
      "Ġarxi": 4950,
      "Ġbelgilari": 4951,
      "Ġsharoitda": 4952,
      "nosi": 4953,
      "Ġaudi": 4954,
      "Ġxizmatlari": 4955,
      "Ġeshik": 4956,
      "Ġmatbuot": 4957,
      "Ġmolekula": 4958,
      "08": 4959,
      "ĠAmerika": 4960,
      "chiga": 4961,
      "dorod": 4962,
      "Ġtahrirga": 4963,
      "anjir": 4964,
      "stra": 4965,
      "Ġjarayonini": 4966,
      "zgarib": 4967,
      "Ġux": 4968,
      "chish": 4969,
      "Ġepi": 4970,
      "Ġzaxira": 4971,
      "Ġkoordinat": 4972,
      "huquqiy": 4973,
      "Ġmahsulotlar": 4974,
      "Ġdunyoda": 4975,
      "âĢĺâĢľ": 4976,
      "ĠUl": 4977,
      "Ġtutadi": 4978,
      "Ġib": 4979,
      "Ġtus": 4980,
      "Ġuzat": 4981,
      "ĠÐ±Ð¸": 4982,
      "Ġkengaytirish": 4983,
      "ĠYaxshi": 4984,
      "Ñĩe": 4985,
      "ĠMoskva": 4986,
      "Al": 4987,
      "Ġzul": 4988,
      "Ġvazifalari": 4989,
      "tirishga": 4990,
      "rsatgan": 4991,
      "Ġmono": 4992,
      "rum": 4993,
      "ĠFo": 4994,
      "Ġmeros": 4995,
      "06": 4996,
      "chaga": 4997,
      "Ġtonna": 4998,
      "OB": 4999,
      "qotgan": 5000,
      "ĠAndijon": 5001,
      "Ġturkiy": 5002,
      "ishlangan": 5003,
      "lmayman": 5004,
      "az": 5005,
      "Ġsirt": 5006,
      "ww": 5007,
      "Ġberildi": 5008,
      "Ġkirdi": 5009,
      "rifat": 5010,
      "Bir": 5011,
      "94": 5012,
      "Ġrad": 5013,
      "Ġqonuni": 5014,
      "Ġoyida": 5015,
      "Ġiflos": 5016,
      "Ġchang": 5017,
      "qur": 5018,
      "flar": 5019,
      "Ġtayyorlangan": 5020,
      "Ġbuyon": 5021,
      "Ġboshiga": 5022,
      "Ġtashkilotlari": 5023,
      "Ġinshoot": 5024,
      "Ġkutib": 5025,
      "masdi": 5026,
      "nu": 5027,
      "ĠÑĦ": 5028,
      "Ġkishining": 5029,
      "Ġajoyib": 5030,
      "Ġviloyatida": 5031,
      "lsam": 5032,
      "Ġerkak": 5033,
      "tirof": 5034,
      "ĠAsosiy": 5035,
      "ĠÐ¶": 5036,
      "Ġxatti": 5037,
      "Ġ..": 5038,
      "plo": 5039,
      "viya": 5040,
      "mirlash": 5041,
      "noye": 5042,
      "Ġyaku": 5043,
      "Ñīe": 5044,
      "Ġmuassasalari": 5045,
      "Ġoshib": 5046,
      "mangan": 5047,
      "zbekistonning": 5048,
      "Ġ75": 5049,
      "GAN": 5050,
      "Ġtaolo": 5051,
      "Ġoldindan": 5052,
      "IK": 5053,
      "Ġ$": 5054,
      "Ġkara": 5055,
      "uy": 5056,
      "Ġpastki": 5057,
      "ddas": 5058,
      "Ġyuborish": 5059,
      "Ġreal": 5060,
      "Ġasoslari": 5061,
      "Ġholatini": 5062,
      "mashyo": 5063,
      "Ġayi": 5064,
      "Ġturdi": 5065,
      "Ġeritmasi": 5066,
      "ET": 5067,
      "drok": 5068,
      "ĠBan": 5069,
      "Ġtahririda": 5070,
      "ĠTO": 5071,
      "tarbiya": 5072,
      "yt": 5073,
      "Ġqandaydir": 5074,
      "Ġyoxud": 5075,
      "ruza": 5076,
      "laring": 5077,
      "Ġshakllan": 5078,
      "2022": 5079,
      "Ġ#": 5080,
      "ok": 5081,
      "vol": 5082,
      "anaviy": 5083,
      "yilning": 5084,
      "fini": 5085,
      "Ġtarkibidagi": 5086,
      "nash": 5087,
      "ĠQishloq": 5088,
      "Ġxususan": 5089,
      "ektori": 5090,
      "Ġgram": 5091,
      "Ġmulki": 5092,
      "Av": 5093,
      "limga": 5094,
      "Ġbuyur": 5095,
      "Ġturlicha": 5096,
      "Ġey": 5097,
      "Ġnihoyatda": 5098,
      "ĠKatta": 5099,
      "misha": 5100,
      "ulyar": 5101,
      "ĠJahon": 5102,
      "ikki": 5103,
      "Ġijara": 5104,
      "baho": 5105,
      "ĠHindiston": 5106,
      "ĠNega": 5107,
      "voq": 5108,
      "Ġ47": 5109,
      "mali": 5110,
      "Ġhukumati": 5111,
      "vot": 5112,
      "ĠGar": 5113,
      "lansa": 5114,
      "ret": 5115,
      "veradi": 5116,
      "Ġyetti": 5117,
      "Ġfunk": 5118,
      "ĠSan": 5119,
      "Ġtarg": 5120,
      "lmoq": 5121,
      "Ġshakllari": 5122,
      "Ġanali": 5123,
      "qqol": 5124,
      "Ġtafakkur": 5125,
      "Ġduch": 5126,
      "laning": 5127,
      "ĠUm": 5128,
      "Ġuzatish": 5129,
      "Ġqum": 5130,
      "!Â»": 5131,
      "Ġishq": 5132,
      "Ġtebra": 5133,
      "af": 5134,
      "Ġion": 5135,
      "Ġnamoyish": 5136,
      "Ø§": 5137,
      "Ġaql": 5138,
      "ĠYusu": 5139,
      "mativ": 5140,
      "cheski": 5141,
      "limni": 5142,
      "Ġchasto": 5143,
      "Ġoksid": 5144,
      "ĠSur": 5145,
      "ova": 5146,
      "ĠOg": 5147,
      "Ġyetakchi": 5148,
      "Ġvide": 5149,
      "Ġegri": 5150,
      "Ġort": 5151,
      "Ġdarvoza": 5152,
      "Ġrivoyat": 5153,
      "ada": 5154,
      "Ġ33": 5155,
      "Ġyerdan": 5156,
      "dual": 5157,
      "MT": 5158,
      "ĠUmumiy": 5159,
      "Ġtayyorgarlik": 5160,
      "Ġgazeta": 5161,
      "Ġmus": 5162,
      "Ġqoro": 5163,
      "Ġfoydalanuvchi": 5164,
      "jay": 5165,
      "yapman": 5166,
      "Ġmuhabbat": 5167,
      "Ġyurti": 5168,
      "sodi": 5169,
      "Ġbormoqda": 5170,
      "Ġchiroy": 5171,
      "yer": 5172,
      "rnatish": 5173,
      "Ġvalyuta": 5174,
      "rali": 5175,
      "fiya": 5176,
      "ĠJumladan": 5177,
      "qt": 5178,
      "Ġyozma": 5179,
      "Ġxususiyati": 5180,
      "Ġgan": 5181,
      "Ġmineral": 5182,
      "ĠMis": 5183,
      "tog": 5184,
      "Ġshundaki": 5185,
      "Ġbuyruq": 5186,
      "ĠUkraina": 5187,
      "Ġjadal": 5188,
      "Ġboriladi": 5189,
      "68": 5190,
      "Ġtip": 5191,
      "Ġkompon": 5192,
      "ĠÙ": 5193,
      "Ġshaklda": 5194,
      "mart": 5195,
      "lip": 5196,
      "zimni": 5197,
      "Ġboshqarmasi": 5198,
      "Ġhuzuridagi": 5199,
      "ĠBarcha": 5200,
      "OY": 5201,
      "onavirus": 5202,
      "yini": 5203,
      "sizlar": 5204,
      "Ġstandart": 5205,
      "Ġruhi": 5206,
      "92": 5207,
      "ob": 5208,
      "Ġqiyofa": 5209,
      "Ġfarzand": 5210,
      "Ġmuntazam": 5211,
      "yul": 5212,
      "Ġtadqiqo": 5213,
      "Ġurib": 5214,
      "Ġjumla": 5215,
      "mag": 5216,
      "Ġkeltiradi": 5217,
      "tiy": 5218,
      "lmasin": 5219,
      "Ġishonchli": 5220,
      "Ġchizig": 5221,
      "tse": 5222,
      "ten": 5223,
      "ĠAra": 5224,
      "liklarning": 5225,
      "Ġmeta": 5226,
      "dona": 5227,
      "Ġbit": 5228,
      "Ġ34": 5229,
      "Ġmunosib": 5230,
      "doy": 5231,
      "Ġeksport": 5232,
      "jen": 5233,
      "Ġmaqola": 5234,
      "Ġ2022": 5235,
      "Ġvakil": 5236,
      "koy": 5237,
      "skari": 5238,
      "Ġtasni": 5239,
      "Ġrol": 5240,
      "dalar": 5241,
      "Ġqas": 5242,
      "ĠÐ²Ð°": 5243,
      "Ġdah": 5244,
      "if": 5245,
      "UZ": 5246,
      "ĠMamla": 5247,
      "Ġsahifa": 5248,
      "sekin": 5249,
      "Ġagentligi": 5250,
      "Ġichak": 5251,
      "Ġ2018": 5252,
      "mato": 5253,
      "Ġxursand": 5254,
      "Ġteg": 5255,
      "Ġishlati": 5256,
      "OS": 5257,
      "quvvatlash": 5258,
      "AZ": 5259,
      "Ġkamida": 5260,
      "yetsya": 5261,
      "Ġyuzi": 5262,
      "pil": 5263,
      "Ġtutgan": 5264,
      "orish": 5265,
      "Ġadi": 5266,
      "ĠMahkamasi": 5267,
      "Ġishora": 5268,
      "urg": 5269,
      "ransport": 5270,
      "Ġmuloqot": 5271,
      "ĠQan": 5272,
      "orizon": 5273,
      "ktyabr": 5274,
      "Ġdur": 5275,
      "Ġinnovat": 5276,
      "Ġmuvozanat": 5277,
      "nn": 5278,
      "xshab": 5279,
      "Ġqilinadigan": 5280,
      "Ġtasdiqlangan": 5281,
      "Ġfaro": 5282,
      "Ġnoto": 5283,
      "Ġavlod": 5284,
      "shsh": 5285,
      "Ġsilji": 5286,
      "chat": 5287,
      "Ġshox": 5288,
      "Ġimtiyo": 5289,
      "limo": 5290,
      "ĠBobur": 5291,
      "Ġehtiyot": 5292,
      "Ġdil": 5293,
      "ÑĨÐ¸": 5294,
      "Ġsuyak": 5295,
      "ĠPrezident": 5296,
      "Ġbyudjet": 5297,
      "Ġ41": 5298,
      "Ġvositalar": 5299,
      "Ġkelin": 5300,
      "xtiyor": 5301,
      "ĠTan": 5302,
      "Ġyonida": 5303,
      "arbiy": 5304,
      "kast": 5305,
      "Ġmansab": 5306,
      "Ġchiqilgan": 5307,
      "Ġ44": 5308,
      "krak": 5309,
      "Ġvara": 5310,
      "ly": 5311,
      "xonaga": 5312,
      "ĠEy": 5313,
      "IT": 5314,
      "rnidan": 5315,
      "stav": 5316,
      "Ġmijo": 5317,
      "Ġnazariyasi": 5318,
      "Ġsiy": 5319,
      "Ġmavjudligi": 5320,
      "Ñİ": 5321,
      "Ġolimlar": 5322,
      "Ġsof": 5323,
      "Ġqano": 5324,
      "Ġinstitut": 5325,
      "ĠÐ¤": 5326,
      "ilish": 5327,
      "Ġtijorat": 5328,
      "rtoq": 5329,
      "rlik": 5330,
      "57": 5331,
      "09": 5332,
      "voz": 5333,
      "gidan": 5334,
      "dorlar": 5335,
      "Ġoli": 5336,
      "rgatish": 5337,
      "ĠBular": 5338,
      "Ġtergov": 5339,
      "yotining": 5340,
      "Ġoshirishga": 5341,
      "mosfera": 5342,
      "Ġtir": 5343,
      "Ġkla": 5344,
      "ĠErta": 5345,
      "Ġdollar": 5346,
      "Ġmanti": 5347,
      "AH": 5348,
      "ĠBoy": 5349,
      "Ġfikricha": 5350,
      "Ġxari": 5351,
      "Ġbio": 5352,
      "Ġopa": 5353,
      "Ġkafolat": 5354,
      "Ġhuquqlari": 5355,
      "Ġayollar": 5356,
      "yotida": 5357,
      "figa": 5358,
      "Ġparametr": 5359,
      "Ġï¿½ï¿½ï¿½ï¿½ï¿½ï¿½ï¿½ï¿½ï¿½ï¿½": 5360,
      "qos": 5361,
      "ĠGermaniya": 5362,
      "Ġyurit": 5363,
      "Davlat": 5364,
      "Ġqorin": 5365,
      "ĠEron": 5366,
      "Ġnoma": 5367,
      "Ġqatorda": 5368,
      "ovchi": 5369,
      "lagich": 5370,
      "ĠBunga": 5371,
      "tadbirlar": 5372,
      "Ġyoshli": 5373,
      "Ġodamning": 5374,
      "Tur": 5375,
      "stin": 5376,
      "Ġyaqqol": 5377,
      "Ġdiam": 5378,
      "utat": 5379,
      "ĠMas": 5380,
      "yoh": 5381,
      "Ġsistemasi": 5382,
      "lashuv": 5383,
      "Ġquvur": 5384,
      "Ġtab": 5385,
      "biridan": 5386,
      "Ġfazilat": 5387,
      "shab": 5388,
      "dirib": 5389,
      "sor": 5390,
      "jiz": 5391,
      "66": 5392,
      "lganidan": 5393,
      "Ġkerakki": 5394,
      "dekabr": 5395,
      "struk": 5396,
      "lovchilar": 5397,
      "organi": 5398,
      "Ġmush": 5399,
      "Ġaxloqiy": 5400,
      "Ġdavolash": 5401,
      "nam": 5402,
      "Ġkelajak": 5403,
      "SSR": 5404,
      "Ġaylana": 5405,
      "ĠAyniqsa": 5406,
      "ror": 5407,
      "prik": 5408,
      "Ġinstituti": 5409,
      "cÐ¸": 5410,
      "Ġsent": 5411,
      "ad": 5412,
      "Ġerga": 5413,
      "IV": 5414,
      "Ġvaz": 5415,
      "Ġyong": 5416,
      "nis": 5417,
      "Ġyaxlit": 5418,
      "boyev": 5419,
      "nay": 5420,
      "âĢĺ,": 5421,
      "\"\"": 5422,
      "ulloh": 5423,
      "zina": 5424,
      "Ġtomonlama": 5425,
      "Ġkasbiy": 5426,
      "naltirilgan": 5427,
      "Ġyoni": 5428,
      "gika": 5429,
      "Ġixtiyoriy": 5430,
      "Ġfoto": 5431,
      "Ġbuyurt": 5432,
      "Ġbol": 5433,
      "ĠTashqi": 5434,
      "malarini": 5435,
      "Ġteskari": 5436,
      "Ġpesh": 5437,
      "Ġvatan": 5438,
      "Ġbahs": 5439,
      "sishi": 5440,
      "ila": 5441,
      "ĠQuyidagi": 5442,
      "hmon": 5443,
      "burchak": 5444,
      "ĠBuyuk": 5445,
      "Ġbuzilishi": 5446,
      "ĠĊĠ": 5447,
      "ĠÒ": 5448,
      "Ġradio": 5449,
      "dimi": 5450,
      "Ġten": 5451,
      "Ġmanzara": 5452,
      "Ġulg": 5453,
      "Ġmini": 5454,
      "Ġamalda": 5455,
      "Ġzanjir": 5456,
      "Ġjoylashtirish": 5457,
      "Ġmahrum": 5458,
      "laylik": 5459,
      "dorligi": 5460,
      "yun": 5461,
      "Ð»ap": 5462,
      "Ġqimmatli": 5463,
      "Ġxavfli": 5464,
      "ĠShunga": 5465,
      "Ġyaratgan": 5466,
      "Ġhayotiy": 5467,
      "Ġparalle": 5468,
      "Ġjarohat": 5469,
      "zingiz": 5470,
      "Ðĵ": 5471,
      "Ġkesim": 5472,
      "vkat": 5473,
      "Ġmamlakatlar": 5474,
      "Ġfoizi": 5475,
      "Ġuyqu": 5476,
      "rash": 5477,
      "Ġjoyga": 5478,
      "sno": 5479,
      "Ġ300": 5480,
      "Ġteat": 5481,
      "Ġfuqarolik": 5482,
      "Ġchiqindi": 5483,
      "eÐ½": 5484,
      "Ġortib": 5485,
      "Sha": 5486,
      "Ġtuxum": 5487,
      "dli": 5488,
      "ratini": 5489,
      "Ġbil": 5490,
      "keting": 5491,
      "Ġtizimida": 5492,
      "51": 5493,
      "OD": 5494,
      "ÐĽ": 5495,
      "lamoq": 5496,
      "Ġqalam": 5497,
      "ĠAyni": 5498,
      "Ġjurnali": 5499,
      "sadi": 5500,
      "Ġsut": 5501,
      "ress": 5502,
      "Ġpotensi": 5503,
      "Ġsababi": 5504,
      "zaki": 5505,
      "Ġorganik": 5506,
      "Ġxarid": 5507,
      "Ġuslubi": 5508,
      "Ġyodgor": 5509,
      "ĠNor": 5510,
      "Ġdoston": 5511,
      "ĠSer": 5512,
      "Ġborada": 5513,
      "Ġoxirida": 5514,
      "Ġoqim": 5515,
      "91": 5516,
      "stlik": 5517,
      "Ġboshida": 5518,
      "Ġajratilgan": 5519,
      "72": 5520,
      "Ġusulda": 5521,
      "Ġvaqtincha": 5522,
      "Ġafzal": 5523,
      "alar": 5524,
      "zosi": 5525,
      "Ð¨": 5526,
      "ĠShuni": 5527,
      "Ġboshlandi": 5528,
      "ĠQir": 5529,
      "Ġbahor": 5530,
      "ĠDunyo": 5531,
      "Ġyashay": 5532,
      "nosini": 5533,
      "tilmoqda": 5534,
      "Ġqonuniy": 5535,
      "Ġolinadigan": 5536,
      "monlar": 5537,
      "Ġhamisha": 5538,
      "Ġjarayonlar": 5539,
      "Ġhisobidan": 5540,
      "Ġjim": 5541,
      "lasa": 5542,
      "ĠKonstitutsiya": 5543,
      "Ġtashkiliy": 5544,
      "rinishda": 5545,
      "Ġstruktura": 5546,
      "Ġkundu": 5547,
      "Ġmafkura": 5548,
      "malarning": 5549,
      "avgust": 5550,
      "Ġboshqacha": 5551,
      "Ġpodsho": 5552,
      "Ġtopadi": 5553,
      "Ġlim": 5554,
      "Ġkayfi": 5555,
      "muncha": 5556,
      "ĊĊ": 5557,
      "Ġanti": 5558,
      "Ġbak": 5559,
      "Ġharakatlar": 5560,
      "Ġmiqdorini": 5561,
      "OQ": 5562,
      "vaniya": 5563,
      "ĠKam": 5564,
      "ĠHech": 5565,
      "qtisodi": 5566,
      "Ġsuyuqlik": 5567,
      "sning": 5568,
      "Oldingi": 5569,
      "dofa": 5570,
      "zarb": 5571,
      "ĠĠĠĠ": 5572,
      "Ġenergiyasi": 5573,
      "xgal": 5574,
      "dina": 5575,
      "Ġkunlari": 5576,
      "ĠAg": 5577,
      "Ġbarmoq": 5578,
      "zimga": 5579,
      "Ġsifatini": 5580,
      "Ġishlatish": 5581,
      "ding": 5582,
      "Ġqiziqish": 5583,
      "Ġhunar": 5584,
      "Ġino": 5585,
      "Ġbalan": 5586,
      "Ġder": 5587,
      "Ġdlya": 5588,
      "Ġqilmoq": 5589,
      "ĠOda": 5590,
      "Ð¼a": 5591,
      "dqiqot": 5592,
      "ĠïĤ": 5593,
      "ĠTosh": 5594,
      "Ġsifatli": 5595,
      "siyalar": 5596,
      "Ġyashagan": 5597,
      "hmat": 5598,
      "Ġqamrab": 5599,
      "toj": 5600,
      "yur": 5601,
      "AB": 5602,
      "Ġberishga": 5603,
      "tkazib": 5604,
      "quvchilarning": 5605,
      "oratoriya": 5606,
      "Ġdog": 5607,
      "Ġtra": 5608,
      "Ġtopilgan": 5609,
      "Ġsado": 5610,
      "OG": 5611,
      "Ġmagnit": 5612,
      "Ġyozadi": 5613,
      "Ġichka": 5614,
      "Ġshaf": 5615,
      "Ġmunosabatlari": 5616,
      "vand": 5617,
      "tiborga": 5618,
      "Ġodamlarning": 5619,
      "lovlar": 5620,
      "Ġomon": 5621,
      "Ġrivoji": 5622,
      "INI": 5623,
      "Ġqonuniyat": 5624,
      "ganim": 5625,
      "Ġxususiyatlarini": 5626,
      "rganib": 5627,
      "Ġbirlik": 5628,
      "ĠÐĶ": 5629,
      "Ġeva": 5630,
      "Ġchiroyli": 5631,
      "Ġxomashyo": 5632,
      "Ġsak": 5633,
      "rativ": 5634,
      "Ġshisha": 5635,
      "Ġaytiladi": 5636,
      "Ġyaxshilash": 5637,
      "Ġunu": 5638,
      "ĠIbn": 5639,
      "Ġsobiq": 5640,
      "tsen": 5641,
      "mizdan": 5642,
      "Ġhalqa": 5643,
      "Ġurin": 5644,
      "Ġqaradi": 5645,
      "uvchanlik": 5646,
      "Ġqilma": 5647,
      "Ġtarzida": 5648,
      "Ġtelefon": 5649,
      "ĠZar": 5650,
      "Ġittifo": 5651,
      "Ġtalqin": 5652,
      "Ġshirin": 5653,
      "ĠSog": 5654,
      "Ġcon": 5655,
      "lamasi": 5656,
      "Ġklas": 5657,
      "Ġstrategiya": 5658,
      "rindosh": 5659,
      "araf": 5660,
      "Ġshakllanishi": 5661,
      "Ġshikast": 5662,
      "!!": 5663,
      "Ġnormal": 5664,
      "Ġijodkor": 5665,
      "Ġlib": 5666,
      "Ġezgu": 5667,
      "Ġdeyish": 5668,
      "Ġjadva": 5669,
      "ĠXuddi": 5670,
      "orning": 5671,
      "Ġtizimining": 5672,
      "Ġharorati": 5673,
      "Ġtushunchasi": 5674,
      "Ġquyidagilar": 5675,
      "Ġmezon": 5676,
      "vro": 5677,
      "76": 5678,
      "lantiruvchi": 5679,
      "Ġkurs": 5680,
      "Ġqayt": 5681,
      "Ġmahkam": 5682,
      "ĠUzbeki": 5683,
      "Ġ120": 5684,
      "Ġmetall": 5685,
      "Ġilova": 5686,
      "Ġqoch": 5687,
      "Ġboshlangan": 5688,
      "Ġhalok": 5689,
      "qov": 5690,
      "Ġpoyta": 5691,
      "ĠDil": 5692,
      "Ġmlrd": 5693,
      "Ġgoh": 5694,
      "naviyat": 5695,
      "Ġtuta": 5696,
      "Ġbirligi": 5697,
      "laydilar": 5698,
      "Ġ,,": 5699,
      "ega": 5700,
      "ÑģÐ°": 5701,
      "Ġshay": 5702,
      "ig": 5703,
      "Ġmaktabi": 5704,
      "Ġili": 5705,
      "oo": 5706,
      "Ġlavozi": 5707,
      "ĠAxir": 5708,
      "ladim": 5709,
      "Ġ65": 5710,
      "limning": 5711,
      "Ġbajarilishi": 5712,
      "Ġkino": 5713,
      "poniya": 5714,
      "Ġkuchay": 5715,
      "Ġchempi": 5716,
      "Ġchaq": 5717,
      "Ġishtirokida": 5718,
      "raza": 5719,
      "ayotgan": 5720,
      "Ġtri": 5721,
      "Ġtaqiq": 5722,
      "roh": 5723,
      "ĠMustaqil": 5724,
      "muro": 5725,
      "kani": 5726,
      "Ġgorizon": 5727,
      "Ġnimani": 5728,
      "ĠQiz": 5729,
      "Ġchiziqli": 5730,
      "Ġyondashuv": 5731,
      "Ġ52": 5732,
      "Ġgru": 5733,
      "Ġpas": 5734,
      "Ġpsixologik": 5735,
      "Ġkoronavirus": 5736,
      "Ġaylanish": 5737,
      "Sho": 5738,
      "Ġqiyinchilik": 5739,
      "ÑĤe": 5740,
      "ĠÑĩ": 5741,
      "Ġok": 5742,
      "lsang": 5743,
      "zgarmas": 5744,
      "Ġbelgisi": 5745,
      "ĠIchki": 5746,
      "texnik": 5747,
      "sirini": 5748,
      "ĠFransiya": 5749,
      "2020": 5750,
      "ĠYor": 5751,
      "Ġkanal": 5752,
      "Ġsavollar": 5753,
      "ying": 5754,
      "stetik": 5755,
      "Ġbiologik": 5756,
      "etri": 5757,
      "nalar": 5758,
      "sel": 5759,
      "ĠAlbatta": 5760,
      "Ġishini": 5761,
      "ÐºÐ°": 5762,
      "Ġsamaradorligini": 5763,
      "Ġist": 5764,
      "skul": 5765,
      "Ð³o": 5766,
      "Ġqurilgan": 5767,
      "vet": 5768,
      "Ġaro": 5769,
      "Is": 5770,
      "Ġchiqaradi": 5771,
      "ĠBay": 5772,
      "shanda": 5773,
      "Ġsing": 5774,
      "Ġyuvi": 5775,
      "Ġtadqiq": 5776,
      "Ġmaksi": 5777,
      "qiron": 5778,
      "rning": 5779,
      "yut": 5780,
      "eng": 5781,
      "Ġtalablar": 5782,
      "lmasdi": 5783,
      "Ġfos": 5784,
      "ratli": 5785,
      "ĠÑĤÐ°": 5786,
      "Ġchto": 5787,
      "Ġkonstruksiya": 5788,
      "Ġkitobi": 5789,
      "Ġbalo": 5790,
      "ĠâĢ¢": 5791,
      "Ġzaru": 5792,
      "lament": 5793,
      "Ġkeltir": 5794,
      "Ġkisloro": 5795,
      "bud": 5796,
      "Ġalmashin": 5797,
      "ndalang": 5798,
      "EV": 5799,
      "Ġbermoqda": 5800,
      "Ġharakatlari": 5801,
      "Ġqalbi": 5802,
      "lilar": 5803,
      "Ġqozon": 5804,
      "Ġtortish": 5805,
      "Ġidrok": 5806,
      "ĠTurkiya": 5807,
      "71": 5808,
      "slar": 5809,
      "Ġqishlog": 5810,
      "Ġmor": 5811,
      "Ġahli": 5812,
      "ĠBor": 5813,
      "Ġshov": 5814,
      "Ġdolzarb": 5815,
      "bdi": 5816,
      "sanmi": 5817,
      "ĠAyrim": 5818,
      "Ġï¿½ï¿½": 5819,
      "Ġtushunish": 5820,
      "manida": 5821,
      "Ġbema": 5822,
      "Ġjamoasi": 5823,
      "Ġegasi": 5824,
      "tarish": 5825,
      "Ġdunyoga": 5826,
      "fiz": 5827,
      "Ġtal": 5828,
      "Ġsakki": 5829,
      "Ġtest": 5830,
      "ĠMahmud": 5831,
      "Ġqismlari": 5832,
      "pto": 5833,
      "Ġaksincha": 5834,
      "Ġast": 5835,
      "Ġjino": 5836,
      "Ġ39": 5837,
      "Ġtopil": 5838,
      "ĠAng": 5839,
      "vay": 5840,
      "Ġuyga": 5841,
      "Ġmuskul": 5842,
      "IX": 5843,
      "qtisodiyot": 5844,
      "Ġsohasi": 5845,
      "kaning": 5846,
      "Ġtoping": 5847,
      "ektar": 5848,
      "hunar": 5849,
      "batga": 5850,
      "Ġmehr": 5851,
      "Ġxar": 5852,
      "Ġoxiriga": 5853,
      "Ġprezidenti": 5854,
      "Ġgapni": 5855,
      "Ġdavlatning": 5856,
      "ganiga": 5857,
      "Ġyashab": 5858,
      "Ġongi": 5859,
      "Ġqisman": 5860,
      "Ġifodalaydi": 5861,
      "Ġyoniga": 5862,
      "ĠShoh": 5863,
      "azal": 5864,
      "omi": 5865,
      "Ġrangli": 5866,
      "Ġxavfsizlik": 5867,
      "lamiz": 5868,
      "rsatkichlari": 5869,
      "Ġtaqo": 5870,
      "Ġqush": 5871,
      "Ġhav": 5872,
      "rsatdi": 5873,
      "ĠQat": 5874,
      "Ġmetod": 5875,
      "Ġifodalanadi": 5876,
      "Ġdina": 5877,
      "ĠThe": 5878,
      "88": 5879,
      "kidlash": 5880,
      "III": 5881,
      "drat": 5882,
      "Ġdeyi": 5883,
      "Ġbajaradi": 5884,
      "Mar": 5885,
      "tmish": 5886,
      "Ġbilgan": 5887,
      "Ġvazifalarni": 5888,
      "52": 5889,
      "dofaa": 5890,
      "lganida": 5891,
      "Ġnomidagi": 5892,
      "Ġjar": 5893,
      "yatini": 5894,
      "Ġbizni": 5895,
      "Ġbarobar": 5896,
      "tiring": 5897,
      "Ġhokimligi": 5898,
      "Ġtarmoqlari": 5899,
      "Ġqada": 5900,
      "Ġyomg": 5901,
      "Ġtezlik": 5902,
      "Ġvodiy": 5903,
      "Ġtayanch": 5904,
      "zorat": 5905,
      "Ġsevi": 5906,
      "ril": 5907,
      "Ġyuv": 5908,
      "git": 5909,
      "Ġanglatadi": 5910,
      "Ġiltimo": 5911,
      "Ġqoldiq": 5912,
      "56": 5913,
      "Ġtaya": 5914,
      "ylar": 5915,
      "ĠInter": 5916,
      "oniston": 5917,
      "lmaslik": 5918,
      "Ġasl": 5919,
      "Ġnarsalar": 5920,
      "Ġdarhol": 5921,
      "Ġhayvonlar": 5922,
      "ĠShayx": 5923,
      "Ġsch": 5924,
      "dum": 5925,
      "Ġ?": 5926,
      "Ġkiyi": 5927,
      "Ġchorva": 5928,
      "shidan": 5929,
      "Ġmilliard": 5930,
      "tirilishi": 5931,
      "Ġqiladilar": 5932,
      "Ġshaxslarning": 5933,
      "Ġtozalash": 5934,
      "Ġsab": 5935,
      "Ġtopo": 5936,
      "Ġholatlar": 5937,
      "Ġgunoh": 5938,
      "kas": 5939,
      "Ġbajariladi": 5940,
      "Ġtexnologiyalari": 5941,
      "Ġsaqlanib": 5942,
      "Ġotasi": 5943,
      "Ġtadbirlar": 5944,
      "Ġmexanik": 5945,
      "Ġindividual": 5946,
      "Ġsariq": 5947,
      "siyosiy": 5948,
      "Ġdemokratik": 5949,
      "duk": 5950,
      "Ġyuqoridagi": 5951,
      "Ġzarba": 5952,
      "Ġroman": 5953,
      "Ġazob": 5954,
      "ĠYuqorida": 5955,
      "Ġbegona": 5956,
      "Ġani": 5957,
      "Ġdeputat": 5958,
      "Ġqilmoqda": 5959,
      "ato": 5960,
      "rinishida": 5961,
      "Ġyoqa": 5962,
      "qishga": 5963,
      "Ġfermer": 5964,
      "naga": 5965,
      "erlar": 5966,
      "Ġaskar": 5967,
      "rinli": 5968,
      "Ġfoydalangan": 5969,
      "elekt": 5970,
      "ĠSO": 5971,
      "Ġtag": 5972,
      "Ġoshirilishi": 5973,
      "Ġnatijada": 5974,
      "Ġnormativ": 5975,
      "Ġmuammolar": 5976,
      "Ġetmoqda": 5977,
      "ĠJinoyat": 5978,
      "ganlar": 5979,
      "rem": 5980,
      "Ġqoidalari": 5981,
      "Ġberilishi": 5982,
      "Ġkimga": 5983,
      "Ġdiffer": 5984,
      "ngizda": 5985,
      "rnida": 5986,
      "Ġholatiga": 5987,
      "nada": 5988,
      "Ġmasji": 5989,
      "86": 5990,
      "Ġvektor": 5991,
      "Nima": 5992,
      "Ġfoydalanishga": 5993,
      "Ġmasalasi": 5994,
      "Ġsara": 5995,
      "ĠHusa": 5996,
      "buzar": 5997,
      "ĠSin": 5998,
      "yni": 5999,
      "Ġbiladi": 6000,
      "Ġjoiz": 6001,
      "lmish": 6002,
      "Ġqildim": 6003,
      "leniya": 6004,
      "ĠShoir": 6005,
      "Ġsherik": 6006,
      "ĠKun": 6007,
      "ksa": 6008,
      "Ġsalomat": 6009,
      "Ġingliz": 6010,
      "hri": 6011,
      "Ġï¿½ï¿½ï¿½ï¿½ï¿½ï¿½ï¿½ï¿½ï¿½ï¿½ï¿½ï¿½ï¿½ï¿½ï¿½ï¿½": 6012,
      "Ġshiko": 6013,
      "Ġchidamli": 6014,
      "gohi": 6015,
      "Ġhamon": 6016,
      "Ġxilma": 6017,
      "koh": 6018,
      "Ġfani": 6019,
      "Ġsuvda": 6020,
      "Ġ43": 6021,
      "rsatuvchi": 6022,
      "moli": 6023,
      "Ġyaratadi": 6024,
      "Ġide": 6025,
      "Ð»o": 6026,
      "minoti": 6027,
      "Ġizchil": 6028,
      "sga": 6029,
      "IS": 6030,
      "Ġduo": 6031,
      "fikatsiya": 6032,
      "Ġmurab": 6033,
      "sev": 6034,
      "gil": 6035,
      "Ġsening": 6036,
      "paytirish": 6037,
      "masalan": 6038,
      "did": 6039,
      "pu": 6040,
      "izmat": 6041,
      "ydik": 6042,
      "Ġasosi": 6043,
      "shilib": 6044,
      "sulot": 6045,
      "ĠAT": 6046,
      "âĢĻ-": 6047,
      "Ġsira": 6048,
      "tkazgich": 6049,
      "ĠMening": 6050,
      "Ġtovarlar": 6051,
      "tsya": 6052,
      "ĠQuyosh": 6053,
      "yxatdan": 6054,
      "yilga": 6055,
      "Ġfizik": 6056,
      "Ġshartli": 6057,
      "Ġram": 6058,
      "Ġ56": 6059,
      "Ġaylanishi": 6060,
      "Ġjigar": 6061,
      "sent": 6062,
      "ritaniya": 6063,
      "Ġxarajatlari": 6064,
      "ĠOdatda": 6065,
      "pni": 6066,
      "Ġaxir": 6067,
      "Te": 6068,
      "lanmoqda": 6069,
      "Ġmodel": 6070,
      "Ġijodi": 6071,
      "nÑĭy": 6072,
      "tadbirlari": 6073,
      "Ġmassasi": 6074,
      "Ġ150": 6075,
      "yildan": 6076,
      "lashtirishga": 6077,
      "Ġpastga": 6078,
      "Ġmuddatda": 6079,
      "Ġlaboratoriya": 6080,
      "Ġishlashi": 6081,
      "nun": 6082,
      "Ġvakili": 6083,
      "yoqqa": 6084,
      "ulom": 6085,
      "Ġstav": 6086,
      "muhi": 6087,
      "larli": 6088,
      "Ġlash": 6089,
      "Ġqobiliyat": 6090,
      "ĠYosh": 6091,
      "Ġsovet": 6092,
      "tig": 6093,
      "ratu": 6094,
      "Ġquvon": 6095,
      "sum": 6096,
      "yalar": 6097,
      "ĠUndan": 6098,
      "Ġpredmet": 6099,
      "Ġxabardor": 6100,
      "Ġeshitib": 6101,
      "qilib": 6102,
      "Ġtilga": 6103,
      "Ġcheki": 6104,
      "ĠAJ": 6105,
      "Ġtaqqos": 6106,
      "umli": 6107,
      "ĠMaktab": 6108,
      "Ġ00": 6109,
      "ĠTog": 6110,
      "Ġetishda": 6111,
      "Ġproyek": 6112,
      "ldirish": 6113,
      "Ġdunyoqara": 6114,
      "Ġkishini": 6115,
      "shilgan": 6116,
      "Ġbirida": 6117,
      "moddasi": 6118,
      "Ġkelmoqda": 6119,
      "Ġkonsep": 6120,
      "layev": 6121,
      "Ġtalablariga": 6122,
      "Ġkelgu": 6123,
      "Ġmaksimal": 6124,
      "xshaydi": 6125,
      "Ġoshirilgan": 6126,
      "UM": 6127,
      "iyul": 6128,
      "ĠBur": 6129,
      "Ġalmashtirish": 6130,
      "harri": 6131,
      "Ye": 6132,
      "ĠAfg": 6133,
      "rq": 6134,
      "Agar": 6135,
      "ĠAlek": 6136,
      "Ġjoyida": 6137,
      "gining": 6138,
      "yiga": 6139,
      "Ġoshiq": 6140,
      "Ġyigirma": 6141,
      "ÑĤo": 6142,
      "Ġpiyo": 6143,
      "Ġovozi": 6144,
      "Ġsiyosati": 6145,
      "Ġtasodi": 6146,
      "Ġpog": 6147,
      "Ġparallel": 6148,
      "maliy": 6149,
      "Ġmasalalarni": 6150,
      "Ġogoh": 6151,
      "lagani": 6152,
      "Ġoro": 6153,
      "Ġtadqiqotlar": 6154,
      "yanvar": 6155,
      "ĠâĤ¬": 6156,
      "ĠBozor": 6157,
      "ĠHatto": 6158,
      "urilish": 6159,
      "Ġhajm": 6160,
      "demik": 6161,
      "ĠPay": 6162,
      "Ġyashovchi": 6163,
      "lashdan": 6164,
      "Ġhayron": 6165,
      "ĠTex": 6166,
      "ĠIN": 6167,
      "bli": 6168,
      "LASH": 6169,
      "Ġgektar": 6170,
      "Ġdra": 6171,
      "hum": 6172,
      "ĠQozog": 6173,
      "kaga": 6174,
      "Ġiloji": 6175,
      "varaq": 6176,
      "Ġuchib": 6177,
      "sona": 6178,
      "Ġoqil": 6179,
      "Ġqolsa": 6180,
      "Ġrez": 6181,
      "Ġkechasi": 6182,
      "Ġyuq": 6183,
      "Ġplan": 6184,
      "US": 6185,
      "tani": 6186,
      "formatsiya": 6187,
      "Ġsohada": 6188,
      "Ġasari": 6189,
      "Ġkonser": 6190,
      "ĠFer": 6191,
      "fas": 6192,
      "Ġyotib": 6193,
      "Ġbitim": 6194,
      "Ġnisbiy": 6195,
      "ct": 6196,
      "rsatishi": 6197,
      "Ġkuchga": 6198,
      "ĠïĢŃ": 6199,
      "shlig": 6200,
      "ĠIshlab": 6201,
      "Ġkompaniyasi": 6202,
      "ulodda": 6203,
      "Ġaylandi": 6204,
      "Ġtobora": 6205,
      "Ġtaf": 6206,
      "Ġato": 6207,
      "Ġtaxminan": 6208,
      "Ġfazo": 6209,
      "rtta": 6210,
      "Ġehtimol": 6211,
      "jas": 6212,
      "Ġtanqid": 6213,
      "versa": 6214,
      "Ġpra": 6215,
      "Ġmohiyatini": 6216,
      "Ġmg": 6217,
      "Ġtuyu": 6218,
      "shning": 6219,
      "noni": 6220,
      "Ġqilaman": 6221,
      "Ġmutlaqo": 6222,
      "langani": 6223,
      "Ġyorqin": 6224,
      "LAN": 6225,
      "Ġtiklash": 6226,
      "Ġpsixologiya": 6227,
      "Ġkelsa": 6228,
      "yillar": 6229,
      "ĠYusuf": 6230,
      "Ġpok": 6231,
      "sle": 6232,
      "Be": 6233,
      "Da": 6234,
      "Ġkamaytirish": 6235,
      "ATI": 6236,
      "chilarga": 6237,
      "yqa": 6238,
      "ĠAA": 6239,
      "Ġmuhtoj": 6240,
      "Ð´Ð°Ð½": 6241,
      "Ġvositasi": 6242,
      "Ġprinsip": 6243,
      "Ġprofessor": 6244,
      "Ġgr": 6245,
      "laman": 6246,
      "Ġturadigan": 6247,
      "and": 6248,
      "Ġdviga": 6249,
      "Ġtim": 6250,
      "Ġintilish": 6251,
      "lashuvchi": 6252,
      "tgach": 6253,
      "ĠDav": 6254,
      "Ġtaal": 6255,
      "lokat": 6256,
      "matli": 6257,
      "Ġinsoniyat": 6258,
      "Ġtatbiq": 6259,
      "Ġqilishning": 6260,
      "Ġbormi": 6261,
      "Ġtashkiloti": 6262,
      "kara": 6263,
      "ilishi": 6264,
      "xonada": 6265,
      "tifikat": 6266,
      "ĠTil": 6267,
      "UK": 6268,
      "ĠUn": 6269,
      "tirma": 6270,
      "satsiya": 6271,
      "Ġkomponent": 6272,
      "xonasi": 6273,
      "laga": 6274,
      "lobal": 6275,
      "81": 6276,
      "Ġspir": 6277,
      "Ġgaplar": 6278,
      "Ġfaoliyatiga": 6279,
      "Ġyetgan": 6280,
      "Qay": 6281,
      "onning": 6282,
      "ĠMirziyo": 6283,
      "Ð¾ÑĢ": 6284,
      "Ġoso": 6285,
      "Ġmamlakatda": 6286,
      "Xalq": 6287,
      "kning": 6288,
      "Ġfanlari": 6289,
      "pas": 6290,
      "Ġsuvga": 6291,
      "Ġhadis": 6292,
      "bosqich": 6293,
      "gratsiya": 6294,
      "unyod": 6295,
      "Ġtaraqqiyoti": 6296,
      "shqadaryo": 6297,
      "2019": 6298,
      "Ġï¿½ï¿½ï¿½ï¿½ï¿½ï¿½ï¿½ï¿½ï¿½ï¿½ï¿½": 6299,
      "Ġmuqaddas": 6300,
      "ĠBog": 6301,
      "Ġqulog": 6302,
      "ensial": 6303,
      "ĠUmuman": 6304,
      "ĠÑı": 6305,
      "De": 6306,
      "yillik": 6307,
      "tma": 6308,
      "arov": 6309,
      "84": 6310,
      "Ġbolaning": 6311,
      "Ġ1000": 6312,
      "Ġbuyrug": 6313,
      "up": 6314,
      "Ġfanlar": 6315,
      "ular": 6316,
      "rot": 6317,
      "Ġfran": 6318,
      "rsatiladi": 6319,
      "ĠGe": 6320,
      "ometrik": 6321,
      "rima": 6322,
      "Ġ49": 6323,
      "soniy": 6324,
      "Ġkishiga": 6325,
      "Ġnishon": 6326,
      "batlantirish": 6327,
      "Ġtopiladi": 6328,
      "nita": 6329,
      "Ġbelgilar": 6330,
      "ĠBino": 6331,
      "Ġyanvar": 6332,
      "amoq": 6333,
      "ĠZam": 6334,
      "Ġjadval": 6335,
      "ĠAbdura": 6336,
      "hil": 6337,
      "orov": 6338,
      "Ġprofes": 6339,
      "llangan": 6340,
      "Ġfoizga": 6341,
      "bara": 6342,
      "ĠJon": 6343,
      "SHI": 6344,
      "Ġashyo": 6345,
      "Ġsathi": 6346,
      "ĠAt": 6347,
      "Ġbirlamchi": 6348,
      "Ġxulq": 6349,
      "ĠÐ·": 6350,
      "Ġcheklangan": 6351,
      "Ġchiqadigan": 6352,
      "Ġtanlab": 6353,
      "qotish": 6354,
      "ĠShe": 6355,
      "Ġgal": 6356,
      "Ġia": 6357,
      "ÑĥÐ½": 6358,
      "UV": 6359,
      "ragan": 6360,
      "Ġqarshilik": 6361,
      "nglar": 6362,
      "HT": 6363,
      "stona": 6364,
      "Ġuya": 6365,
      "Ġsuvi": 6366,
      "Ġcheksiz": 6367,
      "ĠXususan": 6368,
      "Ġjamoatchilik": 6369,
      "Ġboyi": 6370,
      "Ġolamiz": 6371,
      "Ġqatnash": 6372,
      "mun": 6373,
      "hib": 6374,
      "ĠIjtimoiy": 6375,
      "ĠÐ¼Ð°": 6376,
      "qiga": 6377,
      "ĠQodi": 6378,
      "Ġismi": 6379,
      "Ġqilmaydi": 6380,
      "Ġxodimlar": 6381,
      "Ġimpe": 6382,
      "Ġxayr": 6383,
      "ĠBaho": 6384,
      "porti": 6385,
      "Ġnozik": 6386,
      "Ġtalabalar": 6387,
      "Ġhujjatlarni": 6388,
      "Ġtashrif": 6389,
      "zlab": 6390,
      "Ġbarchasi": 6391,
      "toz": 6392,
      "manda": 6393,
      "rdim": 6394,
      "Ġini": 6395,
      "ĠKasal": 6396,
      "izzax": 6397,
      "ĠJanubiy": 6398,
      "Ġdetal": 6399,
      "ik": 6400,
      "iyo": 6401,
      "Ġbas": 6402,
      "Ġbiriga": 6403,
      "Ġmuvaffaqiyat": 6404,
      "Ġrey": 6405,
      "Ġapparat": 6406,
      "nd": 6407,
      "Ġrahbarlari": 6408,
      "dagogik": 6409,
      "Ġqildilar": 6410,
      "87": 6411,
      "ĠGap": 6412,
      "Ġlitsen": 6413,
      "ĠShavkat": 6414,
      "ĠBizning": 6415,
      "Ġ51": 6416,
      "ej": 6417,
      "Ġcher": 6418,
      "chirish": 6419,
      "Ġqorong": 6420,
      "Ġusullar": 6421,
      "lubiy": 6422,
      "Ġzimmasiga": 6423,
      "Ġaxloq": 6424,
      "Ġchu": 6425,
      "Ġtark": 6426,
      "Ġombor": 6427,
      "Ġqiymatini": 6428,
      "Ġoyna": 6429,
      "ldosh": 6430,
      "Ġuniversiteti": 6431,
      "Ġkuzatib": 6432,
      "lanishlar": 6433,
      "ĠYoz": 6434,
      "Ġtoki": 6435,
      "OVA": 6436,
      "Ġtinchlik": 6437,
      "Ġasrda": 6438,
      "ĠBek": 6439,
      "Ġkak": 6440,
      "shiladi": 6441,
      "lanishga": 6442,
      "Ġkuchaytirish": 6443,
      "araz": 6444,
      "Ġhaydov": 6445,
      "Ġzaif": 6446,
      "rsatkichlar": 6447,
      "Ġemish": 6448,
      "lajak": 6449,
      "yxatga": 6450,
      "fik": 6451,
      "ĠTurk": 6452,
      "Ġfol": 6453,
      "TS": 6454,
      "kish": 6455,
      "Ġloyihasi": 6456,
      "Ġbalandligi": 6457,
      "zilgan": 6458,
      "Ki": 6459,
      "Ġfalsafiy": 6460,
      "sotsi": 6461,
      "yajon": 6462,
      "Ġimo": 6463,
      "Ġnn": 6464,
      "aprel": 6465,
      "bel": 6466,
      "pib": 6467,
      "tellekt": 6468,
      "dom": 6469,
      "AD": 6470,
      "ĠKuch": 6471,
      "Ġaholisi": 6472,
      "kredi": 6473,
      "onat": 6474,
      "Ġshunchalik": 6475,
      "ĠÐ±Ñŀ": 6476,
      "UB": 6477,
      "vas": 6478,
      "zay": 6479,
      "kada": 6480,
      "Ġtushuntirish": 6481,
      "Ġ//": 6482,
      "dimiy": 6483,
      "larimizning": 6484,
      "Ġkorxonalari": 6485,
      "ĠÑĳ": 6486,
      "Far": 6487,
      "ĠBugun": 6488,
      "boq": 6489,
      "Ġolindi": 6490,
      "lizatsiya": 6491,
      "Re": 6492,
      "Ġmanzi": 6493,
      "Ġbilmay": 6494,
      "Ġsaro": 6495,
      "Ð½Ð¸Ñı": 6496,
      "Ġkuchlar": 6497,
      "tay": 6498,
      "Ġnegi": 6499,
      "Ġqochib": 6500,
      "Ġsilin": 6501,
      "Ġziyod": 6502,
      "Ġqanoat": 6503,
      "itlar": 6504,
      "fsil": 6505,
      "yaning": 6506,
      "Ġobro": 6507,
      "Ġaytilgan": 6508,
      "Ġsezilarli": 6509,
      "Ġbajara": 6510,
      "Ġshun": 6511,
      "azab": 6512,
      "pozitsiya": 6513,
      "ulg": 6514,
      "Ġguruhga": 6515,
      "ĠOb": 6516,
      "Ġmur": 6517,
      "Ġbolalarning": 6518,
      "Ġmanbai": 6519,
      "monlama": 6520,
      "Ġyang": 6521,
      "Ġzamin": 6522,
      "ĠHisob": 6523,
      "Ġ57": 6524,
      "Ġburun": 6525,
      "Ġtre": 6526,
      "Ġnari": 6527,
      "ĠYaponiya": 6528,
      "Ġtasdiqlash": 6529,
      "Â°": 6530,
      "arkan": 6531,
      "ĠAho": 6532,
      "ĠTuproq": 6533,
      "Ġtaqozo": 6534,
      "Ġach": 6535,
      "nalishlari": 6536,
      "Ġhazrat": 6537,
      "Ġzavo": 6538,
      "Ġyashirin": 6539,
      "atafsil": 6540,
      "Ġqaytar": 6541,
      "Ġetiladigan": 6542,
      "xonalar": 6543,
      "idagi": 6544,
      "Ġaytishi": 6545,
      "dani": 6546,
      "voni": 6547,
      "Ġyuritiladi": 6548,
      "ĠShahar": 6549,
      "ratuzilma": 6550,
      "Ġtezkor": 6551,
      "Ġsoldi": 6552,
      "Ġhodisalar": 6553,
      "zgaradi": 6554,
      "liqdir": 6555,
      "tidagi": 6556,
      "ĠFuqaro": 6557,
      "shishi": 6558,
      "Ġnazaridan": 6559,
      "nta": 6560,
      "IST": 6561,
      "onal": 6562,
      "smir": 6563,
      "Ġqismiga": 6564,
      "Ġtaalluq": 6565,
      "Ġkulib": 6566,
      "Ġtarbiyalash": 6567,
      "Ġfax": 6568,
      "Ġfunksional": 6569,
      "ÐºÐ¸": 6570,
      "Ġsoz": 6571,
      "Ġettirish": 6572,
      "Ġaslida": 6573,
      "Ġtaqdi": 6574,
      "zgaruvchan": 6575,
      "tdan": 6576,
      "Ġfuqarolarning": 6577,
      "Ġoqimi": 6578,
      "torlik": 6579,
      "EM": 6580,
      "Ġoshadi": 6581,
      "Ġeto": 6582,
      "Ġinobatga": 6583,
      "Ġyashil": 6584,
      "sasi": 6585,
      "Ġmavqe": 6586,
      "ĠâĪĴ": 6587,
      "Ġlah": 6588,
      "yab": 6589,
      "suz": 6590,
      "Ġyetkaz": 6591,
      "ual": 6592,
      "Ġ85": 6593,
      "Ġfarovon": 6594,
      "Ġxonadon": 6595,
      "shimchalar": 6596,
      "Ġichra": 6597,
      "Ġaylangan": 6598,
      "Ġmuammolarni": 6599,
      "BEK": 6600,
      "larimizni": 6601,
      "Ġdunyoning": 6602,
      "Ġyak": 6603,
      "Ġhayrat": 6604,
      "Ġtru": 6605,
      "Ġmantiqiy": 6606,
      "Ġfas": 6607,
      "Ġajratiladi": 6608,
      "nalishda": 6609,
      "Ġdegani": 6610,
      "Ġqayerda": 6611,
      "nitariya": 6612,
      "Ġvafo": 6613,
      "ĠIqtisodiy": 6614,
      "Ġmero": 6615,
      "liklarga": 6616,
      "Ġturg": 6617,
      "Ġmajlis": 6618,
      "Ġ400": 6619,
      "Ġajrat": 6620,
      "Ġbosma": 6621,
      "Ġmutaxassislar": 6622,
      "ble": 6623,
      "Ġevaziga": 6624,
      "Ġfaqatgina": 6625,
      "Ġxavfsizligi": 6626,
      "Ġinsp": 6627,
      "parvarlik": 6628,
      "Ġbelgilaydi": 6629,
      "Ġsalohiyati": 6630,
      "Ġkelishuv": 6631,
      "Ġortishi": 6632,
      "tikal": 6633,
      "Ġqarindosh": 6634,
      "ĠïĢ«": 6635,
      "Ġtamom": 6636,
      "chog": 6637,
      "Ġelementlari": 6638,
      "giron": 6639,
      "Ġkolle": 6640,
      "taliya": 6641,
      "Ġ2005": 6642,
      "Ġbular": 6643,
      "Ġpalata": 6644,
      "tirildi": 6645,
      "Ġtushuniladi": 6646,
      "rishni": 6647,
      "stor": 6648,
      "ĠKeyingi": 6649,
      "Ġinsonlar": 6650,
      "Ġbuyu": 6651,
      "atini": 6652,
      "xgalteriya": 6653,
      "Ġmajmua": 6654,
      "Ġatmosfera": 6655,
      "Ġurg": 6656,
      "Ġsonini": 6657,
      "Ġoxiri": 6658,
      "Ġenerge": 6659,
      "ental": 6660,
      "Ġzaryad": 6661,
      "Ġ95": 6662,
      "ĠBritaniya": 6663,
      "ĠQonuni": 6664,
      "Ġeksperti": 6665,
      "Ġtang": 6666,
      "Ġsizni": 6667,
      "noyabr": 6668,
      "61": 6669,
      "ĠMada": 6670,
      "chkina": 6671,
      "Ġsharq": 6672,
      "uning": 6673,
      "Ð»Ð°Ð½": 6674,
      "Ġedik": 6675,
      "Ġziddi": 6676,
      "Ġavtomat": 6677,
      "Ġundagi": 6678,
      "74": 6679,
      "ĠUlarni": 6680,
      "Ġfaoliyatida": 6681,
      "ĠNamangan": 6682,
      "ĠÑħ": 6683,
      "Ġgipo": 6684,
      "Ġiliq": 6685,
      "ĠPu": 6686,
      "Ġzid": 6687,
      "Ġfikrlar": 6688,
      "simo": 6689,
      "Ġolmay": 6690,
      "Ġjoni": 6691,
      "Ġjinoiy": 6692,
      "doshi": 6693,
      "Ð²o": 6694,
      "Ġkimyo": 6695,
      "Ġtekshiruv": 6696,
      "Ġnov": 6697,
      "Ġqadimiy": 6698,
      "Ġbut": 6699,
      "Ġetadigan": 6700,
      "Ġaytadi": 6701,
      "Ġolov": 6702,
      "filak": 6703,
      "Ġchiqariladi": 6704,
      "Ġdirektori": 6705,
      "93": 6706,
      "Ġnatijasi": 6707,
      "Sen": 6708,
      "yum": 6709,
      "chada": 6710,
      "ĠEh": 6711,
      "zit": 6712,
      "lanmaydi": 6713,
      "rod": 6714,
      "hoi": 6715,
      "yp": 6716,
      "Ġmazmunini": 6717,
      "rlari": 6718,
      "Ġxayol": 6719,
      "xtab": 6720,
      "ĠTadbir": 6721,
      "ĠAB": 6722,
      "del": 6723,
      "Ġichidagi": 6724,
      "Ġ2004": 6725,
      "deya": 6726,
      "ĠFor": 6727,
      "Ġbirini": 6728,
      "yotiga": 6729,
      "ĠIm": 6730,
      "Ġobyektiv": 6731,
      "Man": 6732,
      "Ġdekabr": 6733,
      "naning": 6734,
      "Ġonasi": 6735,
      "Â»)": 6736,
      "Ġkristal": 6737,
      "Ġsazo": 6738,
      "Ġuncha": 6739,
      "top": 6740,
      "Ġviloyatlar": 6741,
      "Ġshunaqa": 6742,
      "ĠTarix": 6743,
      "qilgan": 6744,
      "Ġbolalarni": 6745,
      "lishni": 6746,
      "Ġze": 6747,
      "Ġtiz": 6748,
      "Ġvazifalar": 6749,
      "82": 6750,
      "tmi": 6751,
      "Ġunut": 6752,
      "Ġsxemasi": 6753,
      "Ð±Ð¸": 6754,
      "Ġdahshat": 6755,
      "Ġyoshdagi": 6756,
      "Ġgorizontal": 6757,
      "yoni": 6758,
      "Ġsoya": 6759,
      "ĠMul": 6760,
      "Ġbirla": 6761,
      "54": 6762,
      "Ġajab": 6763,
      "chilarni": 6764,
      "ribon": 6765,
      "pp": 6766,
      "Ġholatga": 6767,
      "Ġzan": 6768,
      "Ġkiritiladi": 6769,
      "ĠÐ»": 6770,
      "Bar": 6771,
      "garchilik": 6772,
      "INING": 6773,
      "rilmoqda": 6774,
      "Ey": 6775,
      "Ġinfratuzilma": 6776,
      "Ġmahsulotlarini": 6777,
      "barin": 6778,
      "ĠXoja": 6779,
      "Ġkurashish": 6780,
      "Ġberiladigan": 6781,
      "Ġ2010": 6782,
      "Ġoqib": 6783,
      "chir": 6784,
      "han": 6785,
      "Ġtashlash": 6786,
      "Ġtashish": 6787,
      "Ġharf": 6788,
      "Ġbel": 6789,
      "Ġkimsa": 6790,
      "lumotlarga": 6791,
      "Ñĭx": 6792,
      "kuratura": 6793,
      "shinchi": 6794,
      "Shuningdek": 6795,
      "Ġnavbatda": 6796,
      "Ġkasa": 6797,
      "Ġdalil": 6798,
      "Ġfarqli": 6799,
      "Ġpodshoh": 6800,
      "rasmda": 6801,
      "xondaryo": 6802,
      "67": 6803,
      "ĠIbro": 6804,
      "Ġ72": 6805,
      "zuqa": 6806,
      "Ġvodorod": 6807,
      "Ġqayg": 6808,
      "Ġusullarini": 6809,
      "Ġ<": 6810,
      "sanoat": 6811,
      "Ġborligini": 6812,
      "indisi": 6813,
      "Ġosi": 6814,
      "Ġavi": 6815,
      "Ġinkor": 6816,
      "Ġiroda": 6817,
      "Ġkelganda": 6818,
      "Ġyasalgan": 6819,
      "Ġboshidan": 6820,
      "Ġtopdi": 6821,
      "\")": 6822,
      "ĠSt": 6823,
      "ĠZero": 6824,
      "ag": 6825,
      "enta": 6826,
      "ĠOra": 6827,
      "Ġval": 6828,
      "Ġkengashi": 6829,
      "Ġprinsipi": 6830,
      "Ġnarsaga": 6831,
      "batini": 6832,
      "ismoniy": 6833,
      "armasi": 6834,
      "Ġmushak": 6835,
      "Ġturlarini": 6836,
      "ĠRespublikasida": 6837,
      "Ġbeza": 6838,
      "xiy": 6839,
      "lashtiruvchi": 6840,
      "ĠToji": 6841,
      "Ġostiga": 6842,
      "Ġsolig": 6843,
      "Ġturizm": 6844,
      "Ġmoni": 6845,
      "riddin": 6846,
      "tt": 6847,
      "Ġjinsiy": 6848,
      "ĠHusayn": 6849,
      "Ġturuvchi": 6850,
      "klari": 6851,
      "Ġyordamchi": 6852,
      "Ġmuvaffaqiyatli": 6853,
      "Ġtashabbus": 6854,
      "Ġ2016": 6855,
      "Ġong": 6856,
      "Ġtezroq": 6857,
      "kol": 6858,
      "Ġboshliq": 6859,
      "Ġbaribir": 6860,
      "ðŁĳ": 6861,
      "Ġakademiya": 6862,
      "kalari": 6863,
      "llaniladigan": 6864,
      "Ġ54": 6865,
      "ola": 6866,
      "Ġkasalliklar": 6867,
      "Ġnuqson": 6868,
      "Ġopti": 6869,
      "Ġolinishi": 6870,
      "62": 6871,
      "Ġishlatiladigan": 6872,
      "chizma": 6873,
      "onasi": 6874,
      "Ġlitsenziya": 6875,
      "Ġbudjet": 6876,
      "Ġishlagan": 6877,
      "Ġolar": 6878,
      "rinni": 6879,
      "Ġolganda": 6880,
      "Ġishdan": 6881,
      "Ġbayram": 6882,
      "Ġeshitgan": 6883,
      "64": 6884,
      "Ġikkinchisi": 6885,
      "Ð»e": 6886,
      "Hozir": 6887,
      "Yangi": 6888,
      "Ġsharti": 6889,
      "limda": 6890,
      "Ġkesib": 6891,
      "Ġorqaga": 6892,
      "hiyat": 6893,
      "Ġchiqara": 6894,
      "Ġjoyiga": 6895,
      "tmay": 6896,
      "ĠNur": 6897,
      "Ġqoldim": 6898,
      "yori": 6899,
      "Ġshikoyat": 6900,
      "ĠAsar": 6901,
      "tamin": 6902,
      "Ġfarqi": 6903,
      "Ġtaraq": 6904,
      "taba": 6905,
      "xan": 6906,
      "Ġboshlanishi": 6907,
      "Ġshaxslarga": 6908,
      "ĠHavo": 6909,
      "Ġuyiga": 6910,
      "tishni": 6911,
      "ĠbÑĭ": 6912,
      "Ġqarat": 6913,
      "kiga": 6914,
      "aÐ½": 6915,
      "Ġkamayadi": 6916,
      "Ġhokimi": 6917,
      "blar": 6918,
      "Ġjamiyatning": 6919,
      "Ġsubyek": 6920,
      "Ġtushunchalar": 6921,
      "Ġsik": 6922,
      "hid": 6923,
      "Ġbirmuncha": 6924,
      "Ġrais": 6925,
      "kir": 6926,
      "mah": 6927,
      "yishiga": 6928,
      "ash": 6929,
      "mizdagi": 6930,
      "Ġsaf": 6931,
      "ĠBil": 6932,
      "Ġ1998": 6933,
      "tomonlama": 6934,
      "58": 6935,
      "rof": 6936,
      "Ġmir": 6937,
      "Ġdali": 6938,
      "Ġmadra": 6939,
      "Ġxis": 6940,
      "ĠIttifo": 6941,
      "Ġyumshoq": 6942,
      "chani": 6943,
      "Ġgavda": 6944,
      "nix": 6945,
      "0000": 6946,
      "kri": 6947,
      "lyatsiya": 6948,
      "Ġnomini": 6949,
      "ĠRus": 6950,
      "73": 6951,
      "Ġmatematik": 6952,
      "ĠBolalar": 6953,
      "Ġyalpi": 6954,
      "onda": 6955,
      "Ġfunksiyasi": 6956,
      "Ġyoziladi": 6957,
      "Ġvideo": 6958,
      "laringiz": 6959,
      "Ġborligi": 6960,
      ".).": 6961,
      "ĠMajlis": 6962,
      "Ġvositasida": 6963,
      "Ġtumanida": 6964,
      "orozi": 6965,
      "ĠPol": 6966,
      "Ġkengay": 6967,
      "Ġoqilona": 6968,
      "Ġklini": 6969,
      "ĠNav": 6970,
      "ishiy": 6971,
      "Ġorada": 6972,
      "Ġdarajadagi": 6973,
      "ĠSSSR": 6974,
      "yiladigan": 6975,
      "Ġraqamli": 6976,
      "Ab": 6977,
      "egori": 6978,
      "Ġreali": 6979,
      "tana": 6980,
      "shing": 6981,
      "ĠUsmon": 6982,
      "Ġshifokor": 6983,
      "volyu": 6984,
      "Ġhuquqiga": 6985,
      "Ñĭe": 6986,
      "2018": 6987,
      "Ġidish": 6988,
      "langanda": 6989,
      "odat": 6990,
      "chaning": 6991,
      "rganadi": 6992,
      "Ġkadrlar": 6993,
      "Ġberishni": 6994,
      "Ġqatlami": 6995,
      "rsatkichi": 6996,
      "aniq": 6997,
      "Ġï¿½ï¿½ï¿½ï¿½ï¿½ï¿½ï¿½ï¿½ï¿½ï¿½ï¿½ï¿½ï¿½ï¿½ï¿½ï¿½ï¿½ï¿½ï¿½ï¿½ï¿½ï¿½ï¿½ï¿½ï¿½ï¿½ï¿½ï¿½ï¿½ï¿½ï¿½ï¿½ï¿½ï¿½ï¿½ï¿½ï¿½ï¿½ï¿½ï¿½ï¿½ï¿½ï¿½ï¿½ï¿½ï¿½ï¿½ï¿½": 6998,
      "Ġyopiq": 6999,
      "Ġhisoblab": 7000,
      "Ġmamlakatlarda": 7001,
      "gist": 7002,
      "Ġsuvning": 7003,
      "Ġtartibini": 7004,
      "Ġnarsalarni": 7005,
      "Ġyengi": 7006,
      "ĠHuj": 7007,
      "Ġtuzu": 7008,
      "ĠBOB": 7009,
      "Ġhissi": 7010,
      "rani": 7011,
      "ĠUchinchi": 7012,
      "Ġbron": 7013,
      "Ġoqa": 7014,
      "Ð»ÑĬ": 7015,
      "Ġiqtisodiyoti": 7016,
      "Ġ1999": 7017,
      "Ð¾Ð²": 7018,
      "ssi": 7019,
      "Ġimkoniyatlari": 7020,
      "ĠUmar": 7021,
      "No": 7022,
      "Ġvoqealar": 7023,
      "zoni": 7024,
      "Ġpunk": 7025,
      "ĠKore": 7026,
      "ĠMirziyoyev": 7027,
      "Ġmedi": 7028,
      "Ġolmagan": 7029,
      "Ġimkoniyatini": 7030,
      "Ġsummasi": 7031,
      "hli": 7032,
      "Ġyotqi": 7033,
      "Ġbatafsil": 7034,
      "Ġvositalarini": 7035,
      "Ġkelar": 7036,
      "Ġasarida": 7037,
      "ĠMaq": 7038,
      "ishlab": 7039,
      "shahar": 7040,
      "Ġyetadi": 7041,
      "Ġshakllangan": 7042,
      "Ġsazovor": 7043,
      "Ġoshirishda": 7044,
      "Ġstansiya": 7045,
      "Ġtanlov": 7046,
      "Ġsurish": 7047,
      "Ġtashqariga": 7048,
      "Ġrivojlan": 7049,
      "Ġ1996": 7050,
      "Ġkambag": 7051,
      "unonchi": 7052,
      "ĠRasul": 7053,
      "Ġsham": 7054,
      "Ġrejalashtirish": 7055,
      "Ġjarayonining": 7056,
      "Ġertalab": 7057,
      "Ġ2008": 7058,
      "Mah": 7059,
      "Ġtaom": 7060,
      "rgazma": 7061,
      "Ġvirus": 7062,
      "Ġxalqning": 7063,
      "Ð°Ð¼": 7064,
      "Ġoldidan": 7065,
      "ĠSud": 7066,
      "Ġoldinga": 7067,
      "Ġtahlili": 7068,
      "Ġasrlar": 7069,
      "Ġkommu": 7070,
      "ĠJam": 7071,
      "Ġbeton": 7072,
      "Ġnasos": 7073,
      "ĠDastlab": 7074,
      "ĠSirdaryo": 7075,
      "lashtir": 7076,
      "tepa": 7077,
      "Ġpedagog": 7078,
      "Ġusulida": 7079,
      "rag": 7080,
      "Ġniyati": 7081,
      "Ġuyda": 7082,
      "Ġbuyurtma": 7083,
      "Mo": 7084,
      "cal": 7085,
      ",-": 7086,
      "dova": 7087,
      "Ġpreparat": 7088,
      "Ġpuxta": 7089,
      "Ġoylik": 7090,
      "Ġtong": 7091,
      "est": 7092,
      "jeti": 7093,
      "Ġqabila": 7094,
      "Mi": 7095,
      "rindi": 7096,
      "Ġolishni": 7097,
      "Ġmunosabatlarni": 7098,
      "Ġegallagan": 7099,
      "pin": 7100,
      "Ġtizimlari": 7101,
      "Ġxotir": 7102,
      "Ġdiplo": 7103,
      "atiga": 7104,
      "Ð°ÑĤ": 7105,
      "53": 7106,
      "Ġderaza": 7107,
      "Ġbilimlar": 7108,
      "qis": 7109,
      "Ġmansabdor": 7110,
      "Ġsel": 7111,
      "Ġifodalangan": 7112,
      "89": 7113,
      "kda": 7114,
      "Ġniyat": 7115,
      "voyi": 7116,
      "Yu": 7117,
      "Ġanglab": 7118,
      "Ġodamlarni": 7119,
      "Ġyuborgan": 7120,
      "ĠBMT": 7121,
      "Ġqalb": 7122,
      "ydilar": 7123,
      "Ġketayotgan": 7124,
      "und": 7125,
      "Ġmanfaatlarini": 7126,
      "Ġzichligi": 7127,
      "ĠSino": 7128,
      "Ġaloqalar": 7129,
      "ping": 7130,
      "atsion": 7131,
      "zgi": 7132,
      "ĠÐİ": 7133,
      "ĠBugungi": 7134,
      "Ġ1997": 7135,
      "Ġtizimiga": 7136,
      "qibat": 7137,
      "ĠMus": 7138,
      "Ġep": 7139,
      "sozlik": 7140,
      "Ġkumush": 7141,
      "Ġtabaqa": 7142,
      "ĠButun": 7143,
      "jassam": 7144,
      "masida": 7145,
      "Ġ2003": 7146,
      "ĠNar": 7147,
      "Ġbozori": 7148,
      "jib": 7149,
      "Ġgiper": 7150,
      "burg": 7151,
      "Ġdok": 7152,
      "Ġyetishtirish": 7153,
      "Ġqutu": 7154,
      "Ġnafari": 7155,
      "Ġnikoh": 7156,
      "irligi": 7157,
      "Ġyetdi": 7158,
      "yga": 7159,
      "Ġmaydonga": 7160,
      "Ġtiliga": 7161,
      "Ġqoidalar": 7162,
      "ate": 7163,
      "Do": 7164,
      "Ġorganlarining": 7165,
      "latish": 7166,
      "unna": 7167,
      "ZBEK": 7168,
      "Ġsuvni": 7169,
      "orga": 7170,
      "Ġ2001": 7171,
      "Ġxlo": 7172,
      "zokara": 7173,
      "minlangan": 7174,
      "Ġ2009": 7175,
      "Ġsami": 7176,
      "Ġisho": 7177,
      "Ġmateriallari": 7178,
      "Ġinnovatsion": 7179,
      "Ġxususida": 7180,
      "Ġiyul": 7181,
      "Ġ77": 7182,
      "Ġshartnomasi": 7183,
      "Ġmunosabatda": 7184,
      "Ġuzviy": 7185,
      "Ġsovg": 7186,
      "ĠSta": 7187,
      "ĠSal": 7188,
      "Ġ2002": 7189,
      "ÙĨ": 7190,
      "Ġbosqichda": 7191,
      "Ġrayon": 7192,
      "tuman": 7193,
      "Ġtusha": 7194,
      "Ġkeksa": 7195,
      "Ġekish": 7196,
      "ozi": 7197,
      "Ġqilgani": 7198,
      "rilganda": 7199,
      "Ġjabr": 7200,
      "kil": 7201,
      "Ġkabilar": 7202,
      "Ġzot": 7203,
      "iyun": 7204,
      "ilo": 7205,
      "Ġnazorati": 7206,
      "Ġtalablari": 7207,
      "Ġqari": 7208,
      "Ġodamni": 7209,
      "Ġmujassam": 7210,
      "Ġyuzasi": 7211,
      "NK": 7212,
      "uquq": 7213,
      "organizm": 7214,
      "Ġtanga": 7215,
      "say": 7216,
      "Ġzararli": 7217,
      "Ġhik": 7218,
      "Ġlavozim": 7219,
      "Ġappara": 7220,
      "Ġeff": 7221,
      "Ġxossalari": 7222,
      "EL": 7223,
      "Ġnimaga": 7224,
      "rey": 7225,
      "Ġaloqador": 7226,
      "Ġmaktabgacha": 7227,
      "83": 7228,
      "taj": 7229,
      "63": 7230,
      "lasha": 7231,
      "ĠXV": 7232,
      "ÒĽÐ¸": 7233,
      "ĠMU": 7234,
      "Ġxom": 7235,
      "chora": 7236,
      "shanba": 7237,
      "gap": 7238,
      "Ġyetkazish": 7239,
      "CO": 7240,
      "Ġmalakali": 7241,
      "minot": 7242,
      "Ġ|": 7243,
      "ydin": 7244,
      "Ushbu": 7245,
      "Shar": 7246,
      "Ġje": 7247,
      "Ġmuharri": 7248,
      "Ġpedagogika": 7249,
      "Ġfili": 7250,
      "ĠIlmiy": 7251,
      "shil": 7252,
      "Ġasarlarida": 7253,
      "ure": 7254,
      "Ġbosimi": 7255,
      "Ġmarosim": 7256,
      "Ġelementlar": 7257,
      "Ġtebranish": 7258,
      "Ġmashqlar": 7259,
      "jiy": 7260,
      "ĠÂ«!": 7261,
      "ĠÐĲ": 7262,
      "Ġnorozi": 7263,
      "mlari": 7264,
      "ger": 7265,
      "Ġmukofo": 7266,
      "madim": 7267,
      "ĠÐ¿o": 7268,
      "zlangan": 7269,
      "zlarga": 7270,
      "oye": 7271,
      "Ġkeluvchi": 7272,
      "Ġkanali": 7273,
      "Ġkana": 7274,
      "ĠKeyinchalik": 7275,
      "Ġahvoli": 7276,
      "alliy": 7277,
      "ĠHuku": 7278,
      "Ġulgur": 7279,
      "Ġekspe": 7280,
      "ĠUzbekistan": 7281,
      "Ġsignal": 7282,
      "Ð²Ð¸": 7283,
      "Ġref": 7284,
      "Ġsudi": 7285,
      "Ġtipi": 7286,
      "Ġsaroy": 7287,
      "Ġxalqlar": 7288,
      "Ġfoi": 7289,
      "Ġarava": 7290,
      "Ġqadim": 7291,
      "Ġaziz": 7292,
      "Ġaero": 7293,
      "Ġingi": 7294,
      "Ġpalatasi": 7295,
      "Ġibodat": 7296,
      "qligi": 7297,
      "Ġtovu": 7298,
      "Ġ110": 7299,
      "Ġpotensial": 7300,
      "Ġ%": 7301,
      "Ġmato": 7302,
      "stoni": 7303,
      "Ġkomissiyasi": 7304,
      "ĠBalki": 7305,
      "Ġsamol": 7306,
      "Ġxro": 7307,
      "ĠXay": 7308,
      "Ġgruppa": 7309,
      "Ġyuqoriga": 7310,
      ",)": 7311,
      "ÑģÑĤ": 7312,
      "Ġtit": 7313,
      "yotir": 7314,
      "69": 7315,
      "Ġbot": 7316,
      "Mazkur": 7317,
      "Ġqodir": 7318,
      "FY": 7319,
      "Ġiltimos": 7320,
      "imi": 7321,
      "Ġtomchi": 7322,
      "sharoit": 7323,
      "Ġbilimlarni": 7324,
      "ĠIz": 7325,
      "Ġkelaja": 7326,
      "tomo": 7327,
      "Ġvaqtning": 7328,
      "hrat": 7329,
      "Ġhisobida": 7330,
      "ĠQis": 7331,
      "Ġsalom": 7332,
      "Ġkunga": 7333,
      "Ġbosti": 7334,
      "Ġfron": 7335,
      "Ġhalol": 7336,
      "Ġsizning": 7337,
      "Ġprotses": 7338,
      "Ð¿a": 7339,
      "Ġ53": 7340,
      "Ġbosqichida": 7341,
      "Ġmam": 7342,
      "ij": 7343,
      "Ġbunyod": 7344,
      "Ġrivojlanishiga": 7345,
      "zrati": 7346,
      "Ġqav": 7347,
      "yxati": 7348,
      "langa": 7349,
      "yak": 7350,
      "Ġsabr": 7351,
      "Ġrivojlantirishga": 7352,
      "Ġlav": 7353,
      "Ġaylanma": 7354,
      "Ġnavbatdagi": 7355,
      "Ġholi": 7356,
      "Ġsovi": 7357,
      "nova": 7358,
      "sixi": 7359,
      "Ġvoyaga": 7360,
      "Ġchiqiladi": 7361,
      "ngu": 7362,
      "Ġ59": 7363,
      "Ġhavza": 7364,
      "Ġyechish": 7365,
      "ĠVal": 7366,
      "bank": 7367,
      "59": 7368,
      "Ġkategori": 7369,
      "ĠKengashi": 7370,
      "Ġalmashtiri": 7371,
      "Ġozuqa": 7372,
      "ĠTabiiy": 7373,
      "Ġqilardi": 7374,
      "Ġpolim": 7375,
      "chen": 7376,
      "Ġyilga": 7377,
      "Ġyashaydi": 7378,
      "ĠUzbekiston": 7379,
      "Ġpishi": 7380,
      "Ġurf": 7381,
      "Ġhovli": 7382,
      "Ġturkum": 7383,
      "Ġoilaviy": 7384,
      "Ġxonim": 7385,
      "ĠTurli": 7386,
      "ozlar": 7387,
      "Ġiboratdir": 7388,
      "Ġshil": 7389,
      "tkazildi": 7390,
      "Ġraq": 7391,
      "Ġig": 7392,
      "ĠMenga": 7393,
      "ektiv": 7394,
      "Ġanglash": 7395,
      "Ġkamo": 7396,
      "ĠIII": 7397,
      "vestitsiya": 7398,
      "Ġaqliy": 7399,
      "Ġkuchsiz": 7400,
      "Ġasrlarda": 7401,
      "irlik": 7402,
      "tuv": 7403,
      "Ġdiametri": 7404,
      "Ġmubo": 7405,
      "SR": 7406,
      "ferensiya": 7407,
      "Ġdarajasida": 7408,
      "havo": 7409,
      "Ġjarayonlari": 7410,
      "Ġmusbat": 7411,
      "giz": 7412,
      "Ġhayotga": 7413,
      "unkali": 7414,
      "sariyat": 7415,
      "onalar": 7416,
      "Ġsakkiz": 7417,
      "ĠBA": 7418,
      "Ġekst": 7419,
      "ĠTush": 7420,
      "Ġjanob": 7421,
      "Ġ2007": 7422,
      "BIY": 7423,
      "ĠXiva": 7424,
      "Ġprokuratura": 7425,
      "Ġyaroq": 7426,
      "Ġturku": 7427,
      "Ġtushirish": 7428,
      "yangi": 7429,
      "ysun": 7430,
      "votir": 7431,
      "aktiv": 7432,
      "==": 7433,
      "latlar": 7434,
      "Ġvay": 7435,
      "tsion": 7436,
      "Ġmingdan": 7437,
      "Ġtashladi": 7438,
      "Ġhuquqini": 7439,
      "Ġjavobgarlik": 7440,
      "Ġulushi": 7441,
      "Ġran": 7442,
      "ras": 7443,
      "Ġ58": 7444,
      "Ġsanoati": 7445,
      "ĠAzi": 7446,
      "Ġinsoniy": 7447,
      "ðŁĩ": 7448,
      "Ġtomonida": 7449,
      "ĠMeni": 7450,
      "Ġortadi": 7451,
      "Ġestetik": 7452,
      "Ġketar": 7453,
      "Ġgol": 7454,
      "rosti": 7455,
      "lashtirilishi": 7456,
      "Ġpayg": 7457,
      "shid": 7458,
      "qilg": 7459,
      "Ġifodalash": 7460,
      "Ġfido": 7461,
      "Ġqirq": 7462,
      "Ġsolinadi": 7463,
      "Ã½": 7464,
      "ldilar": 7465,
      "Ġbuyumlar": 7466,
      "ynaydi": 7467,
      "Ġkafe": 7468,
      "rach": 7469,
      "tellektual": 7470,
      "Ġagro": 7471,
      "Ġmarketing": 7472,
      "Ġsochi": 7473,
      "Ġsolingan": 7474,
      "gandan": 7475,
      "yotini": 7476,
      "metrik": 7477,
      "parta": 7478,
      "ĠQal": 7479,
      "................": 7480,
      "Ġxafa": 7481,
      "tsiyasi": 7482,
      "ney": 7483,
      "jan": 7484,
      "Ġkitobxon": 7485,
      "Fa": 7486,
      "Ġqilinayotgan": 7487,
      "Ġlik": 7488,
      "Ġmarotaba": 7489,
      "Ġ2006": 7490,
      "ope": 7491,
      "tilgani": 7492,
      "ĠÑĪÐ¸": 7493,
      "ĠÑĤa": 7494,
      "Ġtezda": 7495,
      "Ġtalaff": 7496,
      "Ġmoliyalashtirish": 7497,
      "Ġalam": 7498,
      "Ġtutish": 7499,
      "nev": 7500,
      "rmagan": 7501,
      "Ġtaraqqiy": 7502,
      "Ġochish": 7503,
      "ĠSovet": 7504,
      "tiqod": 7505,
      "Ġtr": 7506,
      "Ġ\\": 7507,
      "Ġdax": 7508,
      "Ġjavo": 7509,
      "Ġdard": 7510,
      "Ġmamlakatning": 7511,
      "ĠMisol": 7512,
      "ĠOt": 7513,
      "ĠKas": 7514,
      "Ġgapirib": 7515,
      "Ġ2015": 7516,
      "Ġnisbati": 7517,
      "Ġkishilarning": 7518,
      "ldirib": 7519,
      "Ġkampir": 7520,
      "Ġquvvati": 7521,
      "Ġmiqdorida": 7522,
      "Ġmamlakatimizda": 7523,
      "zur": 7524,
      "Ġkoeffitsiyenti": 7525,
      "Ġegallaydi": 7526,
      "ĠYaqin": 7527,
      "Ġxarita": 7528,
      "lpon": 7529,
      "Ġyoza": 7530,
      "Ġuyushmasi": 7531,
      "ĠKO": 7532,
      "limdan": 7533,
      "Ġkislorod": 7534,
      "Ġhayajon": 7535,
      "pqa": 7536,
      "Ġbakteriya": 7537,
      "inch": 7538,
      "rega": 7539,
      "79": 7540,
      "kg": 7541,
      "xush": 7542,
      "Ġayon": 7543,
      "Ġtumanidagi": 7544,
      "uvchanligi": 7545,
      "Ġtasvirlangan": 7546,
      "Ġolami": 7547,
      "ĠAdabiyot": 7548,
      "chilikka": 7549,
      "Ġnoyabr": 7550,
      "Ġarzon": 7551,
      "layotgani": 7552,
      "Ġferment": 7553,
      "tilish": 7554,
      "Ġqich": 7555,
      "Ġnogiron": 7556,
      "Ġhajmini": 7557,
      "Ġbuyrak": 7558,
      "Ġ96": 7559,
      "Ġmumkinligini": 7560,
      "EE": 7561,
      "kini": 7562,
      "ĠBobo": 7563,
      "KA": 7564,
      "Ġimti": 7565,
      "Ġtugun": 7566,
      "rova": 7567,
      "Ġgeografik": 7568,
      "Ġpush": 7569,
      "Ġaholini": 7570,
      "Ġbirining": 7571,
      "UT": 7572,
      "Xa": 7573,
      "Ġnemis": 7574,
      "Ġ99": 7575,
      "Ġkiruvchi": 7576,
      "Ġsonlar": 7577,
      "UQ": 7578,
      "Ġqaytarib": 7579,
      "--------": 7580,
      "giye": 7581,
      "Ð»Ð¸Ðº": 7582,
      "ĠAdliya": 7583,
      "Ġidoralar": 7584,
      "Ġmanzil": 7585,
      "Ġfors": 7586,
      "Ġkichkina": 7587,
      "bov": 7588,
      "Ġhayotida": 7589,
      "tensiv": 7590,
      "čĊĠčĊĠčĊĠčĊĠ": 7591,
      "Ġsolla": 7592,
      "Ġraqib": 7593,
      "Ġkotibi": 7594,
      "ĠAN": 7595,
      "miniy": 7596,
      "ĠHarakat": 7597,
      "Ġdagi": 7598,
      "ÙĬ": 7599,
      "atsiyasi": 7600,
      "Ġdesa": 7601,
      "Ġbilishi": 7602,
      "qachon": 7603,
      "Ġbanda": 7604,
      "Ġkoordinata": 7605,
      "ÐĲ": 7606,
      "Ġgor": 7607,
      "Ġyurituvchi": 7608,
      "Ġholatlarda": 7609,
      "Ġmahorat": 7610,
      "ĠTaq": 7611,
      "vini": 7612,
      "Ġbulgan": 7613,
      "andis": 7614,
      "Ġmaqsadli": 7615,
      "tkaziladigan": 7616,
      "Ġyuboradi": 7617,
      "transport": 7618,
      "qaruv": 7619,
      "Ġfur": 7620,
      "Si": 7621,
      "ĠMamlakat": 7622,
      "ĠHayot": 7623,
      "plangan": 7624,
      "Rossiya": 7625,
      "RA": 7626,
      "shakl": 7627,
      "Ġarteriya": 7628,
      "Ġalmashinuvi": 7629,
      "fida": 7630,
      "Ġbirikmalar": 7631,
      "Ġbirikma": 7632,
      "Ġsharh": 7633,
      "Ġegallab": 7634,
      "Qi": 7635,
      "Ġakt": 7636,
      "ĠHaqiqat": 7637,
      "Ġxususiyatiga": 7638,
      "ildirak": 7639,
      "Ġmoment": 7640,
      "Ġyay": 7641,
      "Ġhujjatlariga": 7642,
      "pli": 7643,
      "Ġpozi": 7644,
      "Ġerur": 7645,
      "raning": 7646,
      "Ġaslo": 7647,
      "ĠQirg": 7648,
      "rifiy": 7649,
      "Ġkunlar": 7650,
      "Ġprezident": 7651,
      "ĠNihoyat": 7652,
      "lganlar": 7653,
      "Ġtayyorlanadi": 7654,
      "doni": 7655,
      "Ġ250": 7656,
      "qit": 7657,
      "uka": 7658,
      "Ġben": 7659,
      "Ġamaldagi": 7660,
      "Ġsabza": 7661,
      "Ġodamlarga": 7662,
      "Ġ64": 7663,
      "jayev": 7664,
      "ĠÐ²a": 7665,
      "Ġtarzi": 7666,
      "Ġmendan": 7667,
      "lif": 7668,
      "Ġklub": 7669,
      "Ro": 7670,
      "Ġkeltirgan": 7671,
      "Ġekani": 7672,
      "Ġ62": 7673,
      "Ġkvadrat": 7674,
      "had": 7675,
      "Ġyugur": 7676,
      "onni": 7677,
      "Ġmanbalari": 7678,
      "Ġxohi": 7679,
      "lastik": 7680,
      "Ġtexnologiyasi": 7681,
      "Ġterma": 7682,
      "Ġroli": 7683,
      "Ġtexni": 7684,
      "Ġqurbon": 7685,
      "Ġtasnif": 7686,
      "Ġaba": 7687,
      "Ġtashlanadi": 7688,
      "xeo": 7689,
      "Ġravshan": 7690,
      "Ġkamroq": 7691,
      "mav": 7692,
      "Ġchiqqa": 7693,
      "uza": 7694,
      "bandning": 7695,
      "ĠMov": 7696,
      "Ġodamga": 7697,
      "ĠMin": 7698,
      "riyb": 7699,
      "Ġsollallohu": 7700,
      "Ġvertikal": 7701,
      "Ġislohotlar": 7702,
      "Ġmoddalarning": 7703,
      "sinlar": 7704,
      "Ġtuziladi": 7705,
      "Ġyotadi": 7706,
      "Ġqurib": 7707,
      "qomat": 7708,
      "Ġmasalani": 7709,
      "ĠÐľ": 7710,
      "ĠTay": 7711,
      "bobi": 7712,
      "rup": 7713,
      "jik": 7714,
      "onga": 7715,
      "Ġaffi": 7716,
      "ĠShimoliy": 7717,
      "ĠÂ«?": 7718,
      "Ġetishni": 7719,
      "Ġrivojlanadi": 7720,
      "Ġtaalluqli": 7721,
      "Ġimkoni": 7722,
      "ĠJavob": 7723,
      "Dar": 7724,
      "ĠAslida": 7725,
      "yohat": 7726,
      "sallam": 7727,
      "Ġshahridagi": 7728,
      "Ġoshirib": 7729,
      "ĠTashki": 7730,
      "RISH": 7731,
      "rimda": 7732,
      "Ay": 7733,
      "Ġhayotda": 7734,
      "Ġdedim": 7735,
      "ĠToshkentda": 7736,
      "TM": 7737,
      "Ġorasidan": 7738,
      "yildi": 7739,
      "Ġavgust": 7740,
      "ĠAngliya": 7741,
      "xara": 7742,
      "Ġegadir": 7743,
      "Ġegalik": 7744,
      "lamo": 7745,
      "Ġii": 7746,
      "stiq": 7747,
      "Ġbolalarga": 7748,
      "Ġhujjatlarida": 7749,
      "Ġasosda": 7750,
      "Ġminut": 7751,
      "ÑĪÑĪ": 7752,
      "Ġdarax": 7753,
      "An": 7754,
      "qora": 7755,
      "Ġyuziga": 7756,
      "Ġmuddatga": 7757,
      "Ġtilini": 7758,
      "Ð¤": 7759,
      "ĠOv": 7760,
      "Ġtexnologiyalar": 7761,
      "ngdan": 7762,
      "Ġinqilo": 7763,
      "Ġdavla": 7764,
      "arounna": 7765,
      "Ġshoshi": 7766,
      "ĠGur": 7767,
      "hod": 7768,
      "Ġtayyorgar": 7769,
      "Ġbolam": 7770,
      "Ġmiqyo": 7771,
      "ĠKichik": 7772,
      "qaloq": 7773,
      "ĠÐŃ": 7774,
      "Ġettiradi": 7775,
      "Ġvazirining": 7776,
      "Ġvazifalarini": 7777,
      "ĠPer": 7778,
      "Ġtezlikda": 7779,
      "Ġmuqo": 7780,
      "Ġifodalovchi": 7781,
      "Ġadib": 7782,
      "ĠQizil": 7783,
      "minlovchi": 7784,
      "Ġoke": 7785,
      "Ġazot": 7786,
      "riat": 7787,
      "Ġ1992": 7788,
      "Ġdomla": 7789,
      "Ġojiz": 7790,
      "Ġkashf": 7791,
      "Ġbaravar": 7792,
      "Ġhamkorlikda": 7793,
      "Qora": 7794,
      "Ġbildirdi": 7795,
      "ÐĶ": 7796,
      "Ġboq": 7797,
      "tekt": 7798,
      "ĠIV": 7799,
      "ĠKitob": 7800,
      "chadi": 7801,
      "Ġolishda": 7802,
      "ĠSug": 7803,
      "Ġkarta": 7804,
      "ĠTAR": 7805,
      "Ġqilishdan": 7806,
      "Ġsohib": 7807,
      "Ġiqlim": 7808,
      "//": 7809,
      "rad": 7810,
      "laroq": 7811,
      "ĠUzoq": 7812,
      "USH": 7813,
      "Ġintegral": 7814,
      "randa": 7815,
      "Ġger": 7816,
      "ovar": 7817,
      "lohida": 7818,
      "rede": 7819,
      "Ġoptimal": 7820,
      "Ġlahza": 7821,
      "tek": 7822,
      "dast": 7823,
      "ction": 7824,
      "com": 7825,
      "Ġminnat": 7826,
      "Ish": 7827,
      "Ġvakolatli": 7828,
      "Ġsertifikat": 7829,
      "Ġyallig": 7830,
      "Ġyetishi": 7831,
      "atkor": 7832,
      "gment": 7833,
      "ĠXul": 7834,
      "ĠVe": 7835,
      "kidlab": 7836,
      "Ġaniqlang": 7837,
      "Ġyevro": 7838,
      "Ġteshi": 7839,
      "lanishni": 7840,
      "onstruksiya": 7841,
      "Le": 7842,
      "Ġtushunib": 7843,
      "ĠImom": 7844,
      "xonning": 7845,
      "Ġalmashtirilsin": 7846,
      "atlar": 7847,
      "ĠSher": 7848,
      "yma": 7849,
      "qadar": 7850,
      "Ġturmu": 7851,
      "ralgan": 7852,
      "iroq": 7853,
      "Ġtushishi": 7854,
      "Ġmehnatga": 7855,
      "Ġ71": 7856,
      "lsangiz": 7857,
      "Ġkamera": 7858,
      "nikma": 7859,
      "Ġyeb": 7860,
      "Ġqol": 7861,
      "ĠMol": 7862,
      "lad": 7863,
      "Ġtutash": 7864,
      "Ġreak": 7865,
      "ĠDars": 7866,
      "maloq": 7867,
      "Ġshogir": 7868,
      "Ġmudofaa": 7869,
      "Ġtenglamasi": 7870,
      "yurt": 7871,
      "qigan": 7872,
      "yuÑī": 7873,
      "Ġvse": 7874,
      "sig": 7875,
      "ĠUlardan": 7876,
      "kÐ¸": 7877,
      "raktor": 7878,
      "Ġtizimli": 7879,
      "Ġquyidagilarni": 7880,
      "lasu": 7881,
      "Ġqiyna": 7882,
      "âĢĻ,": 7883,
      "Ġimkoniyatlarini": 7884,
      "ĠPet": 7885,
      "Ġriso": 7886,
      "Ġsulton": 7887,
      "Ġchiqarishni": 7888,
      "xabar": 7889,
      "shen": 7890,
      "matov": 7891,
      "ĠEn": 7892,
      "Es": 7893,
      "Ġfondi": 7894,
      "bit": 7895,
      "ĠNazorat": 7896,
      "pus": 7897,
      "Ġqilini": 7898,
      "Ġbajarilgan": 7899,
      "Ġquduq": 7900,
      "Ġkvar": 7901,
      "Ð°Ð½": 7902,
      "Ġbiridir": 7903,
      "Ġlini": 7904,
      "Se": 7905,
      "bop": 7906,
      "ĠTalaba": 7907,
      "Ġqilinib": 7908,
      "ĠHaq": 7909,
      "Ġishlangan": 7910,
      "Ġshoi": 7911,
      "Ġkasalligi": 7912,
      "Ġarzi": 7913,
      "ĠSohib": 7914,
      "llan": 7915,
      "kana": 7916,
      "xalq": 7917,
      "Ġglobal": 7918,
      "gramma": 7919,
      "ISTON": 7920,
      "Ġspekt": 7921,
      "Ġnatriy": 7922,
      "Ġbermaydi": 7923,
      "Ġshaxsga": 7924,
      "LIM": 7925,
      "Ġ2011": 7926,
      "Ġkundalik": 7927,
      "nni": 7928,
      "Ġsotsial": 7929,
      "ĠHali": 7930,
      "Har": 7931,
      "tit": 7932,
      "iladi": 7933,
      "Ġhad": 7934,
      "Ar": 7935,
      "IQ": 7936,
      "Ġqiyos": 7937,
      "Ġnafaqa": 7938,
      "zot": 7939,
      "Ġinda": 7940,
      "Ġildiz": 7941,
      "Ġtubdan": 7942,
      "Ġiqti": 7943,
      "vqulodda": 7944,
      "Ġ1995": 7945,
      "shliq": 7946,
      "dorlari": 7947,
      "Ġmuzokara": 7948,
      "nosida": 7949,
      "Ġnuf": 7950,
      "ralari": 7951,
      "fevral": 7952,
      "Ġtarixida": 7953,
      "tishda": 7954,
      "Ġtushuna": 7955,
      "satdan": 7956,
      "Ð¾Ð»": 7957,
      "lement": 7958,
      "Ġnazardan": 7959,
      "Ġhammasini": 7960,
      "som": 7961,
      "Ġobla": 7962,
      "Ġegallash": 7963,
      "Ġyuboriladi": 7964,
      "Ġerishgan": 7965,
      "rishini": 7966,
      "chig": 7967,
      "Ġgaplarni": 7968,
      "Ġdiy": 7969,
      "ĠSoliq": 7970,
      "ĠCa": 7971,
      "binat": 7972,
      ".;": 7973,
      "simliklarning": 7974,
      "ilib": 7975,
      "Ġqazib": 7976,
      "Ġoshishi": 7977,
      "Ġfizika": 7978,
      "zul": 7979,
      "Ġyaqi": 7980,
      "Ġteshik": 7981,
      "Kim": 7982,
      "-,": 7983,
      "Ġprofessional": 7984,
      "qirdi": 7985,
      "Ġmart": 7986,
      "Ġekspertiza": 7987,
      "âĤ¬": 7988,
      "Ġpensiya": 7989,
      "entlar": 7990,
      "ĠJizzax": 7991,
      "Ġshartlari": 7992,
      "ĠKoreya": 7993,
      "maniston": 7994,
      "lishlari": 7995,
      "Ġ1991": 7996,
      "Ġ2014": 7997,
      "vori": 7998,
      "Ġkelmaydi": 7999,
      "Ġrahba": 8000,
      "Ġobyekti": 8001,
      "Ġkunlik": 8002,
      "Ġsinte": 8003,
      "Ġstatistika": 8004,
      "ĠAvva": 8005,
      "Ġrahbarlik": 8006,
      "raga": 8007,
      "Ġqaramasdan": 8008,
      "________________________________________________________________": 8009,
      "nav": 8010,
      "minlashga": 8011,
      "Ġdarajali": 8012,
      "Ġdasta": 8013,
      "Ġborasidagi": 8014,
      "Ġboshlarida": 8015,
      "zgaruvchi": 8016,
      "Ġyego": 8017,
      "ĠĊĠĊĠĊĠĊ": 8018,
      "Ġtilda": 8019,
      "urtqa": 8020,
      "ĠYet": 8021,
      "Ġ2012": 8022,
      ".\"": 8023,
      "Ġnm": 8024,
      "Ġnomzod": 8025,
      "Ġ67": 8026,
      "Ġindek": 8027,
      "toni": 8028,
      "test": 8029,
      "ĠBeruniy": 8030,
      "ĠJamo": 8031,
      "Ġtran": 8032,
      "Ġ2013": 8033,
      "Ġtaxmin": 8034,
      "Li": 8035,
      "Ġyaxshilik": 8036,
      "ĠKel": 8037,
      "atuvchi": 8038,
      "Ùħ": 8039,
      "Ð·Ð±": 8040,
      "oyalar": 8041,
      "Ġpasay": 8042,
      "Ġnorma": 8043,
      "Ġtashabbu": 8044,
      "chadan": 8045,
      "xod": 8046,
      "Ġimport": 8047,
      "Ġkasalliklari": 8048,
      "ln": 8049,
      "lgandan": 8050,
      "Ġ63": 8051,
      "Ġkomil": 8052,
      "ĠQani": 8053,
      "ĠAka": 8054,
      "liyev": 8055,
      "Ġifodasini": 8056,
      "Ġyetmagan": 8057,
      "una": 8058,
      "Ġjoylashadi": 8059,
      "Ġjamiyatda": 8060,
      "Ġare": 8061,
      "Ġchetga": 8062,
      "Ġatalgan": 8063,
      "Ġqoplangan": 8064,
      "tol": 8065,
      "Ġreklama": 8066,
      "uddin": 8067,
      "mina": 8068,
      "Ġtariqasida": 8069,
      "Ġgen": 8070,
      "Ġsintez": 8071,
      "Ġikkilamchi": 8072,
      "ĠOlloh": 8073,
      "Åĵ": 8074,
      "krati": 8075,
      "Ġellik": 8076,
      "Ġ07": 8077,
      "oÐ½": 8078,
      "Ġkaliy": 8079,
      "Ġiyun": 8080,
      "lyo": 8081,
      "Ġkommunikatsiya": 8082,
      "Ġsaqlanadi": 8083,
      "Ġehtiyoji": 8084,
      "Ġqimmatbaho": 8085,
      "Ġvasallam": 8086,
      "Ġkechik": 8087,
      "ĠMFY": 8088,
      "Ġ66": 8089,
      "Ġtaqsimlash": 8090,
      "ĠÑĢ": 8091,
      "birini": 8092,
      "Ġhuk": 8093,
      "Ġmarkazlari": 8094,
      "landiya": 8095,
      "Ġnuk": 8096,
      "ratlar": 8097,
      "tarilgan": 8098,
      "iziston": 8099,
      "Ġtalabi": 8100,
      "Ġmavsum": 8101,
      "Ġoshirilayotgan": 8102,
      "Ð¿Ð¸": 8103,
      "Ġtopamiz": 8104,
      "ĠIskan": 8105,
      "Ġaniqlab": 8106,
      "Ġchiqargan": 8107,
      "Ġhududlarda": 8108,
      "Ġsutka": 8109,
      "Ġbulut": 8110,
      "Ġachchiq": 8111,
      "Ġtekislik": 8112,
      "Ġqorish": 8113,
      "Ġqonunlar": 8114,
      "Ġziddiyat": 8115,
      "Ġyopish": 8116,
      "Ġlayo": 8117,
      "Ġorganlar": 8118,
      "burug": 8119,
      "laming": 8120,
      "masidan": 8121,
      "Ġqiya": 8122,
      "Ġsabablari": 8123,
      "Ġkut": 8124,
      "skaya": 8125,
      "ĠItaliya": 8126,
      "katta": 8127,
      "ekti": 8128,
      "Ġmoj": 8129,
      "Ġqilur": 8130,
      "tobus": 8131,
      "Ġ==": 8132,
      "ĠRusta": 8133,
      "ĠTabiat": 8134,
      "Ġyoqim": 8135,
      "emor": 8136,
      "ĠQashqadaryo": 8137,
      "cheskoy": 8138,
      "ĠAfrika": 8139,
      "stro": 8140,
      "Ġperi": 8141,
      "kovi": 8142,
      "Ġayting": 8143,
      "Ġolo": 8144,
      "rilmagan": 8145,
      "Ġzaruriy": 8146,
      "Ġboylik": 8147,
      "Ġmuloqo": 8148,
      "moz": 8149,
      "ĠYuqoridagi": 8150,
      "qizlar": 8151,
      "Ġishlaydigan": 8152,
      "chilikni": 8153,
      "bola": 8154,
      "kimyoviy": 8155,
      "Ġquti": 8156,
      "ttiz": 8157,
      "Ġsarfi": 8158,
      "kichik": 8159,
      "Ġnatijalarini": 8160,
      "Ġmurabbiy": 8161,
      "ssalom": 8162,
      "Ġtaxt": 8163,
      "ĠFede": 8164,
      "suski": 8165,
      "Ġhamkorlikni": 8166,
      "Ġchegarasi": 8167,
      "yem": 8168,
      "Ġindu": 8169,
      "Ġbuladi": 8170,
      "liki": 8171,
      "Ġpayqa": 8172,
      "siyaga": 8173,
      "Ġfavqulodda": 8174,
      "hnat": 8175,
      "chirib": 8176,
      "niqli": 8177,
      "dedim": 8178,
      "lantiradi": 8179,
      "naf": 8180,
      "Ġyir": 8181,
      "ĠAm": 8182,
      "))": 8183,
      "Ġqanaqa": 8184,
      "kamol": 8185,
      "Ġavtomobi": 8186,
      "Ġarmiya": 8187,
      "Â»;": 8188,
      "Ġhomila": 8189,
      "ĠRim": 8190,
      "Ġyaxshiroq": 8191,
      "Ġ92": 8192,
      "Ġyilgi": 8193,
      "Ġsamaradorligi": 8194,
      "Ġsheki": 8195,
      "doshlar": 8196,
      "llanadi": 8197,
      "Bundan": 8198,
      "osh": 8199,
      "Ġodob": 8200,
      "tativ": 8201,
      "Ġhisobo": 8202,
      "ĠQanday": 8203,
      "Ġchizma": 8204,
      "Ġachi": 8205,
      "ĠMajlisi": 8206,
      "Ġtuzatish": 8207,
      "qna": 8208,
      "Ġyuzini": 8209,
      "Ġgran": 8210,
      "Ġaylantirish": 8211,
      "ĠOm": 8212,
      "cc": 8213,
      "Ġnimalar": 8214,
      "Ġoling": 8215,
      "Ġtasi": 8216,
      "Ġster": 8217,
      "demi": 8218,
      "Ġintensiv": 8219,
      "Ġaxboro": 8220,
      "ĠSav": 8221,
      "ĠSurxondaryo": 8222,
      "Ġqariyb": 8223,
      "Ġpredme": 8224,
      "Ġhush": 8225,
      "Ġzum": 8226,
      "lanar": 8227,
      "Ġyuklama": 8228,
      "larimni": 8229,
      "eÑĤ": 8230,
      "Ġmatrit": 8231,
      "skogo": 8232,
      "dia": 8233,
      "Ġyetuk": 8234,
      "Ġfarqlanadi": 8235,
      "Ġmarkazida": 8236,
      "Ġyillarida": 8237,
      "arru": 8238,
      "taga": 8239,
      "Ġ01": 8240,
      "Ġcholg": 8241,
      "Ð½Ð¸e": 8242,
      "Ġholatlari": 8243,
      "Ġdifferensial": 8244,
      "ĠMovarounna": 8245,
      "Ġayir": 8246,
      "ĠOsiyoda": 8247,
      "tadqiqot": 8248,
      "ĠKorxona": 8249,
      "ĠQO": 8250,
      "uga": 8251,
      "Ġsevgi": 8252,
      "arlar": 8253,
      "Ġresurslari": 8254,
      "Ġdavriy": 8255,
      "Ġbirorta": 8256,
      "ĠIbrohim": 8257,
      "kori": 8258,
      "xori": 8259,
      "nologiya": 8260,
      "Qu": 8261,
      "Ġdini": 8262,
      "Ġ74": 8263,
      "vali": 8264,
      "Ġxor": 8265,
      "Ġoldim": 8266,
      "Ġzavq": 8267,
      "Ġatrofidagi": 8268,
      "Ġzarracha": 8269,
      "Ġishlaydi": 8270,
      "Ġmodeli": 8271,
      "Ġshovqin": 8272,
      "Ġguruhlar": 8273,
      "haqiqat": 8274,
      "Ġbarava": 8275,
      "nol": 8276,
      "Ġanju": 8277,
      "eral": 8278,
      "Ġney": 8279,
      "ysa": 8280,
      "Ġahamiyatini": 8281,
      "dara": 8282,
      "Ġchekka": 8283,
      "tkazilishi": 8284,
      "Ġistiqbo": 8285,
      "Ġyel": 8286,
      "Ġtashxi": 8287,
      "Ġtimso": 8288,
      "Ġkodeksining": 8289,
      "ï¿½ï¿½ï¿½ï¿½ï¿½ï¿½ï¿½ï¿½ï¿½ï¿½ï¿½ï¿½": 8290,
      "xoz": 8291,
      "Ġborilgan": 8292,
      "Ġostidagi": 8293,
      "Ġkunlarda": 8294,
      "Ġvas": 8295,
      "Ġmexanizmi": 8296,
      "ĠOybek": 8297,
      "loli": 8298,
      "lono": 8299,
      "nomalar": 8300,
      "Ġbeg": 8301,
      "ino": 8302,
      "Ġsiydik": 8303,
      "qishi": 8304,
      "Ġchorak": 8305,
      "qituvchilar": 8306,
      "oyaviy": 8307,
      "ĠPod": 8308,
      "Ġberki": 8309,
      "Ð°Ð²": 8310,
      ",.": 8311,
      "pat": 8312,
      "Ġshayx": 8313,
      "ĠPQ": 8314,
      "dorligini": 8315,
      "jonov": 8316,
      "ĠÂ£": 8317,
      "Ġittifoq": 8318,
      "ĠÎ": 8319,
      "yani": 8320,
      "chli": 8321,
      "Ġjarayonlarni": 8322,
      "Ġ84": 8323,
      "Ġkimning": 8324,
      "Ġdov": 8325,
      "Ġblok": 8326,
      "Ġxiy": 8327,
      "ĠEks": 8328,
      "ullar": 8329,
      "Ġistiqbol": 8330,
      "Ġvazirligining": 8331,
      "Ham": 8332,
      "olg": 8333,
      "ĠXon": 8334,
      "Ġparlament": 8335,
      "Ġallaqachon": 8336,
      "avf": 8337,
      "laganda": 8338,
      "Buxoro": 8339,
      "Ġboshqaruvchi": 8340,
      "Ġdengi": 8341,
      "Ġishqa": 8342,
      "udrat": 8343,
      "etik": 8344,
      "Ġfoydalanishni": 8345,
      "ĠErkin": 8346,
      "ÑĥÑĢ": 8347,
      "Ġbad": 8348,
      "RO": 8349,
      "qor": 8350,
      "ĠShay": 8351,
      "radilar": 8352,
      "Ġbemalol": 8353,
      "Ġ>": 8354,
      "kislota": 8355,
      "Ġmukofot": 8356,
      "Ġmalakasini": 8357,
      "Ġhayotning": 8358,
      "graf": 8359,
      "Ġmamlakatimiz": 8360,
      "Ġshekilli": 8361,
      "ĠKol": 8362,
      "alati": 8363,
      "Ġyuborilgan": 8364,
      "Ġtuzum": 8365,
      "ĠAbul": 8366,
      "Ġsamimiy": 8367,
      "zingni": 8368,
      "Ġkuchlari": 8369,
      "ĠIsmo": 8370,
      "Ġemasligi": 8371,
      "Ġkema": 8372,
      "ĠArab": 8373,
      "ĠÐĸ": 8374,
      "Ġchiz": 8375,
      "ĠMuro": 8376,
      "Ġchiziqlar": 8377,
      "Ġpal": 8378,
      "Ġmamlakatlari": 8379,
      "Ġod": 8380,
      "Ġdev": 8381,
      "Ġasoslanib": 8382,
      "Ġfevral": 8383,
      "ngida": 8384,
      "Ġtaxta": 8385,
      "liyo": 8386,
      "rishib": 8387,
      "Ġmehribon": 8388,
      "Ġqoidalariga": 8389,
      "Ġpayvand": 8390,
      "raydi": 8391,
      "Ġdvigatel": 8392,
      "mulk": 8393,
      "Ġmuallifi": 8394,
      "Ġsam": 8395,
      "Ġtelevi": 8396,
      "Ġholatida": 8397,
      "ĠChor": 8398,
      "Ġball": 8399,
      "iq": 8400,
      "Ġkomplek": 8401,
      "ĠJismoniy": 8402,
      "ted": 8403,
      "mika": 8404,
      "zA": 8405,
      "ÐĹ": 8406,
      "Ġ03": 8407,
      "Ġfunksiyaning": 8408,
      "tqa": 8409,
      "Ġalomat": 8410,
      "anjara": 8411,
      "Ġdaftar": 8412,
      "!..": 8413,
      "taro": 8414,
      "Ġshunchaki": 8415,
      "ĠQadimgi": 8416,
      "KI": 8417,
      "Ġqidir": 8418,
      "Ġparva": 8419,
      "Ġintizo": 8420,
      "ĠBularning": 8421,
      "Ġtasarru": 8422,
      "ĠJuda": 8423,
      "Ġwit": 8424,
      "Ġ78": 8425,
      "Ġshidda": 8426,
      "Ġziyorat": 8427,
      "Ġshod": 8428,
      "Ġqilg": 8429,
      "Ġtakliflar": 8430,
      "OTI": 8431,
      "Ġhuquqbuzar": 8432,
      "Ġchiroq": 8433,
      "Ġgrafik": 8434,
      "Ġqaytarish": 8435,
      "Ġhayotini": 8436,
      "Ġyerdagi": 8437,
      "AP": 8438,
      "Ġdarrov": 8439,
      "Ġkamayib": 8440,
      "Ġwww": 8441,
      "rdagi": 8442,
      "Ġuniversitet": 8443,
      "ĠTez": 8444,
      "niyu": 8445,
      "Ġqilich": 8446,
      "ty": 8447,
      "Ġyerlar": 8448,
      "afur": 8449,
      "poli": 8450,
      "payib": 8451,
      "Ġkerakligini": 8452,
      "ĠAq": 8453,
      "ĠXol": 8454,
      "Ġkali": 8455,
      "Ġprofilak": 8456,
      "Ġyoyi": 8457,
      "rsatma": 8458,
      "Ġdavlatlari": 8459,
      "Ð¸Ð·": 8460,
      "Ġsanaladi": 8461,
      "Ġyashaydigan": 8462,
      "zol": 8463,
      "voj": 8464,
      "Ġariq": 8465,
      "Ġaprel": 8466,
      "Ġlat": 8467,
      "Ġtasodifiy": 8468,
      ".Â«": 8469,
      "Ġhavas": 8470,
      "ĠFarmoni": 8471,
      "Ġijaraga": 8472,
      "Ġxavotir": 8473,
      "Ġ1990": 8474,
      "Ġqismining": 8475,
      "Ġkarbon": 8476,
      "Ġses": 8477,
      "ladimi": 8478,
      "Ġzanji": 8479,
      "Ġaybdor": 8480,
      "liz": 8481,
      "Ġmadrasa": 8482,
      "Ġvazirlik": 8483,
      "Ġetar": 8484,
      "Ġinshoo": 8485,
      "Ġ@": 8486,
      "Ġnu": 8487,
      "ĠHasan": 8488,
      "lanishning": 8489,
      "iya": 8490,
      "Ġmuammolari": 8491,
      "Ġpur": 8492,
      "cham": 8493,
      "Ġmayli": 8494,
      "Ġfikrni": 8495,
      "tektura": 8496,
      "Ġharakatini": 8497,
      "Ġavj": 8498,
      "Ġshaklidagi": 8499,
      "Ġxu": 8500,
      "Ġrekonstruksiya": 8501,
      "Ġzna": 8502,
      "rimo": 8503,
      "Ġasosini": 8504,
      "Ġinfeksiya": 8505,
      "jir": 8506,
      "Ġxoli": 8507,
      "Ġyoqilg": 8508,
      "Ġstol": 8509,
      "boz": 8510,
      "Ġishtirokchi": 8511,
      "qanday": 8512,
      "lishidan": 8513,
      "Ġnoyob": 8514,
      "gandi": 8515,
      "Ġsilindr": 8516,
      "Cl": 8517,
      "EX": 8518,
      "Muh": 8519,
      "kel": 8520,
      "Ġqarorlari": 8521,
      "Ġmuassasalarida": 8522,
      "rush": 8523,
      "valent": 8524,
      "Ġsanitariya": 8525,
      "Ġkarto": 8526,
      "arma": 8527,
      "qirib": 8528,
      "Ġoldidagi": 8529,
      "Ġqizlar": 8530,
      "Ġ68": 8531,
      "yus": 8532,
      "Ġ61": 8533,
      "Ġpaytlarda": 8534,
      "ĠInternet": 8535,
      "Ġgazlama": 8536,
      "Ġviloyatining": 8537,
      "ĠFoyda": 8538,
      "Ġdehqonchilik": 8539,
      "Ġqolar": 8540,
      "ĠAri": 8541,
      "Ġhujjatlarini": 8542,
      "terial": 8543,
      "yapmiz": 8544,
      "Ġkeldim": 8545,
      "Ġchoralar": 8546,
      "ord": 8547,
      "ĠDu": 8548,
      "Ġoti": 8549,
      "Ġshilliq": 8550,
      "raz": 8551,
      "ĠBank": 8552,
      "ix": 8553,
      "uskuna": 8554,
      "Ġkonsentratsiya": 8555,
      "Ġfikrini": 8556,
      "vis": 8557,
      "niylar": 8558,
      "Ġsamolyot": 8559,
      "Ġxazina": 8560,
      "Ġeksp": 8561,
      "Ġ1994": 8562,
      "Ġbez": 8563,
      "Ġqilmay": 8564,
      "Ġilohiy": 8565,
      "Ġxalqimiz": 8566,
      "maki": 8567,
      "Ġjarima": 8568,
      "Ġfaoliyatni": 8569,
      "Ġshuki": 8570,
      "eksiyasi": 8571,
      "javob": 8572,
      "nosib": 8573,
      "doz": 8574,
      "Ġqizg": 8575,
      "ys": 8576,
      "Ġneyt": 8577,
      "lashicha": 8578,
      "Ġyugurib": 8579,
      "tiramiz": 8580,
      "llarni": 8581,
      "Ġbuxgalteriya": 8582,
      "âĪ": 8583,
      "Ġqilishini": 8584,
      "Ali": 8585,
      "rnatiladi": 8586,
      "risi": 8587,
      "hati": 8588,
      "Ġnomidan": 8589,
      "Ġinvestitsiyalar": 8590,
      "tirar": 8591,
      "ĠSamarqan": 8592,
      "fakki": 8593,
      "Ġaniqlashda": 8594,
      "jaligida": 8595,
      "Ġcom": 8596,
      "Ġmoslama": 8597,
      "rganishga": 8598,
      "Ġsanab": 8599,
      "Ġuchraydigan": 8600,
      "Ġboricha": 8601,
      "ZBEKISTON": 8602,
      "qituvchining": 8603,
      "Lo": 8604,
      "ĠYil": 8605,
      "uvon": 8606,
      "Ġemasmi": 8607,
      "Ġcharcha": 8608,
      "Ġqayna": 8609,
      "Ġai": 8610,
      "Ġmahsulotlarni": 8611,
      "Ùĩ": 8612,
      "Ġvij": 8613,
      "Ġfarmon": 8614,
      "Ġakademik": 8615,
      "zgacha": 8616,
      "Ġbildirgan": 8617,
      "Ġ69": 8618,
      "Ġfond": 8619,
      "ĠFay": 8620,
      "yutsya": 8621,
      "soy": 8622,
      "Ġkutilmagan": 8623,
      "leniye": 8624,
      "Ġdasturiy": 8625,
      "Ġrejasi": 8626,
      "Ġxatboshisi": 8627,
      "Ġkorpo": 8628,
      "tilmaydi": 8629,
      "ĠQodiriy": 8630,
      "Ġmuhandis": 8631,
      "Ġ112": 8632,
      "Ġfoji": 8633,
      "Ġboshim": 8634,
      "ener": 8635,
      "ĠDev": 8636,
      "Ġaniqlandi": 8637,
      "eb": 8638,
      "Ġxaridor": 8639,
      "Ġolmas": 8640,
      "Ġhaddan": 8641,
      "ĠÐ¡": 8642,
      "Ġimpul": 8643,
      "Ġkilom": 8644,
      "Ġtomoniga": 8645,
      "Ġbechora": 8646,
      "Ġdedilar": 8647,
      "Ġallo": 8648,
      "Ġtikilib": 8649,
      "Ġpsixi": 8650,
      "Ġmoderni": 8651,
      "Ġqutb": 8652,
      "Ġkata": 8653,
      "ĠAleksan": 8654,
      "Ġlu": 8655,
      "Chi": 8656,
      "shorat": 8657,
      "novi": 8658,
      "hm": 8659,
      "Ġuzra": 8660,
      "Ġmatematika": 8661,
      "Ġblan": 8662,
      "ator": 8663,
      "fologik": 8664,
      "Ġingichka": 8665,
      "zimiz": 8666,
      "Ġqani": 8667,
      "siyaning": 8668,
      "roziya": 8669,
      "lumotlariga": 8670,
      "madaniy": 8671,
      "Ġkechadi": 8672,
      "ĠTojikiston": 8673,
      "kogo": 8674,
      "Ġfak": 8675,
      "ĠIqtisodiyot": 8676,
      "Ġvaraq": 8677,
      "rasiz": 8678,
      "Ġsol": 8679,
      "Ġqobiliyatini": 8680,
      "kari": 8681,
      "Ġstrategik": 8682,
      "ĠZul": 8683,
      "rilsa": 8684,
      "ĠXullas": 8685,
      "Ġuchrash": 8686,
      "Tu": 8687,
      "Ġimkoniyatlar": 8688,
      "Ġchoralari": 8689,
      "Ġhuquqlarini": 8690,
      "ĠÐ½a": 8691,
      "Ġ(\"": 8692,
      "ÐµÐ½": 8693,
      "Ġoppoq": 8694,
      "lasin": 8695,
      "foya": 8696,
      "Ġyangicha": 8697,
      "plar": 8698,
      "Ġberar": 8699,
      "Ġmakro": 8700,
      "yay": 8701,
      "xob": 8702,
      "plash": 8703,
      "jara": 8704,
      "Hi": 8705,
      "tsa": 8706,
      "Ġjun": 8707,
      "asr": 8708,
      "Ġazi": 8709,
      "DABIY": 8710,
      "toshka": 8711,
      "ÑĩÐ°": 8712,
      "chiligida": 8713,
      "Ġmanfiy": 8714,
      "ker": 8715,
      "Ġsoxta": 8716,
      "Ġimtihon": 8717,
      "ĠMashina": 8718,
      "Ġkamayishi": 8719,
      "Ġnatijalar": 8720,
      "Alloh": 8721,
      "ylama": 8722,
      "ÑĪa": 8723,
      "ĠAV": 8724,
      "Ġpasayishi": 8725,
      "hamat": 8726,
      "Ġbolani": 8727,
      "Ġhartomonlama": 8728,
      "Endi": 8729,
      "Ġborar": 8730,
      "Ġsakra": 8731,
      "Ġfaylasu": 8732,
      "Ġxodimi": 8733,
      "Ġnasi": 8734,
      "Ġtabiati": 8735,
      "tm": 8736,
      "Ġfakul": 8737,
      "ĠÐ±Ð¾": 8738,
      "zator": 8739,
      "ĠChunonchi": 8740,
      "Ġ82": 8741,
      "alistik": 8742,
      "Â§": 8743,
      "Ġqiymatlari": 8744,
      "Ġetilayotgan": 8745,
      "Ġyerlarda": 8746,
      "Ġxasta": 8747,
      "Ġqonunlari": 8748,
      "Ġmiqdordagi": 8749,
      "Ġsentyabr": 8750,
      "Ġshular": 8751,
      "ĠYig": 8752,
      "trak": 8753,
      "Ġfanining": 8754,
      "ĠPul": 8755,
      "Ġxalqining": 8756,
      "stlari": 8757,
      "Ġaxborotni": 8758,
      "rquv": 8759,
      "Ġhomiy": 8760,
      "Ġfransuz": 8761,
      "liligi": 8762,
      "Ġjonim": 8763,
      "Ġkunduzi": 8764,
      "Za": 8765,
      "Ġtel": 8766,
      "ĠCO": 8767,
      "lishida": 8768,
      "Ġ'": 8769,
      "ĠMuso": 8770,
      "ĠÂ«?!": 8771,
      "Ð¹Ð¸": 8772,
      "ĠLoyiha": 8773,
      "Ġolis": 8774,
      "Ġbilaman": 8775,
      "Ġoshgan": 8776,
      "Ġinternet": 8777,
      "ĠSport": 8778,
      "Ġtarkibini": 8779,
      "Ġxala": 8780,
      "Ġtafakku": 8781,
      "120": 8782,
      "Ġ600": 8783,
      "Ġkotor": 8784,
      "oyasi": 8785,
      "Ġelchi": 8786,
      "Ġborliq": 8787,
      "sma": 8788,
      "Ġhosila": 8789,
      "Ð°Ð»": 8790,
      "Ġsuvlari": 8791,
      "Ġdaromadlar": 8792,
      "Ġboradigan": 8793,
      "gene": 8794,
      "Ġtarqat": 8795,
      "Ġpoya": 8796,
      "ĠBol": 8797,
      "Ġustki": 8798,
      "Ġdaxl": 8799,
      "Ġinsonni": 8800,
      "Ġmustaqillik": 8801,
      "mib": 8802,
      "ullanuvchi": 8803,
      "Ġtava": 8804,
      "Ġochko": 8805,
      "umi": 8806,
      "Ðŀ": 8807,
      "Ġholatni": 8808,
      "jil": 8809,
      "Ġ1993": 8810,
      "Ġnashriyoti": 8811,
      "Ġsayohat": 8812,
      "Ġishning": 8813,
      "spi": 8814,
      "Ġettiriladi": 8815,
      "Ġaya": 8816,
      "ĠMikro": 8817,
      "ldirilgan": 8818,
      "ydim": 8819,
      "Ġ73": 8820,
      "rob": 8821,
      "Ġistalgan": 8822,
      "sni": 8823,
      "Ġqatoriga": 8824,
      "Ġresurslar": 8825,
      "jda": 8826,
      "Ġmumkinki": 8827,
      "Bug": 8828,
      "liqligi": 8829,
      "nak": 8830,
      "Ġxun": 8831,
      "Ġyemi": 8832,
      "Qon": 8833,
      "king": 8834,
      "Ġsulfat": 8835,
      "Ġplat": 8836,
      "shti": 8837,
      "Ġsahna": 8838,
      "CHJ": 8839,
      "pri": 8840,
      "Ġklinik": 8841,
      "Ġmuvofiqlashtirish": 8842,
      "Ġistiqomat": 8843,
      "Ġuzum": 8844,
      "Ġnomzo": 8845,
      "kaya": 8846,
      "Ġavtomatik": 8847,
      "cher": 8848,
      "ĠQaysi": 8849,
      "Ġdisk": 8850,
      "qmi": 8851,
      "sit": 8852,
      "Ġjonli": 8853,
      "IDA": 8854,
      "logiyasi": 8855,
      "Ġqaytadan": 8856,
      "Ġochilib": 8857,
      "ms": 8858,
      "Ġofi": 8859,
      "tual": 8860,
      "maklashish": 8861,
      "Ġ76": 8862,
      "Ġhan": 8863,
      "hay": 8864,
      "ĠJamiyat": 8865,
      "Ġetayotgan": 8866,
      "Ġmutlaq": 8867,
      "Ġxalqlari": 8868,
      "Ġqalinligi": 8869,
      "Ġnolga": 8870,
      "Ġbolalarda": 8871,
      "ĠÑĤÐ¸": 8872,
      "uliyat": 8873,
      "Ġqava": 8874,
      "Ġfikrlash": 8875,
      "Ġyulduz": 8876,
      "Ġtopshirish": 8877,
      "Ġtushuntirib": 8878,
      "Ġmarosi": 8879,
      "Ġipak": 8880,
      "Ġteore": 8881,
      "llarda": 8882,
      "Ġoktyabr": 8883,
      "Ġtaas": 8884,
      "Ġtopishi": 8885,
      "qaro": 8886,
      "Ġturibdiki": 8887,
      "ĠAK": 8888,
      "pr": 8889,
      "yinlar": 8890,
      "Ġolmadi": 8891,
      "Ġpochta": 8892,
      "Ġxavfi": 8893,
      "Ġyunon": 8894,
      "gisi": 8895,
      "Ġnuqtasi": 8896,
      "Ġmoddaning": 8897,
      "Ġprokur": 8898,
      "Ġvazn": 8899,
      "Ġturiga": 8900,
      "Ġqimir": 8901,
      "Ġyaratib": 8902,
      "ĠMirza": 8903,
      "Ġasab": 8904,
      "Ġqotib": 8905,
      "Ġvazifani": 8906,
      "Ġpere": 8907,
      "Ġtilining": 8908,
      "Ġkifoya": 8909,
      "xoriy": 8910,
      "Ġdavriga": 8911,
      "aj": 8912,
      "Ġ79": 8913,
      "ĠOila": 8914,
      "cheskix": 8915,
      "rganishda": 8916,
      "rinlarda": 8917,
      "Ġyechim": 8918,
      "Ġrivojlanib": 8919,
      "ĠAvval": 8920,
      "Ġtajribasi": 8921,
      "Ġqissa": 8922,
      "Ġnomlari": 8923,
      "âĢĶâĢĶâĢĶâĢĶ": 8924,
      "ĠSN": 8925,
      "Ġnaz": 8926,
      "ĠBerilgan": 8927,
      "Ġmumkinligi": 8928,
      "Ġmaishiy": 8929,
      "dolat": 8930,
      "Ġmajli": 8931,
      "ĠQut": 8932,
      "jin": 8933,
      "zovta": 8934,
      "soz": 8935,
      "Ġdiss": 8936,
      "kut": 8937,
      "Ġklubi": 8938,
      "Ġlashkar": 8939,
      "ringa": 8940,
      "Ġichimlik": 8941,
      "Ġochilgan": 8942,
      "ĠBelgi": 8943,
      "Ġtopshiriqlar": 8944,
      "Ġkuniga": 8945,
      "Ġqoplash": 8946,
      "Ġsharoiti": 8947,
      "Ġmoddalarni": 8948,
      "Avval": 8949,
      "mashq": 8950,
      "Ġbirja": 8951,
      "prav": 8952,
      "ĠAsh": 8953,
      "Ġtashvish": 8954,
      "___": 8955,
      "Ġsvo": 8956,
      "ĠYoki": 8957,
      "Ġbilar": 8958,
      "Ð´e": 8959,
      "Ġhujayralar": 8960,
      "ĠGu": 8961,
      "Ġminimal": 8962,
      "Ġmoyil": 8963,
      "300": 8964,
      "ĠPayg": 8965,
      "ĠOrgani": 8966,
      "Ġkonden": 8967,
      "SN": 8968,
      "chmas": 8969,
      "Ġehtiro": 8970,
      "Ġsti": 8971,
      "Ġtashabbusi": 8972,
      "Ġaksariyat": 8973,
      "allif": 8974,
      "Ġshafqat": 8975,
      "kak": 8976,
      "stu": 8977,
      "Ġrahmat": 8978,
      "Ġintellektual": 8979,
      "kishi": 8980,
      "gaz": 8981,
      "kadi": 8982,
      "Ġsina": 8983,
      "Ġchiqardi": 8984,
      "murod": 8985,
      "Ġmenej": 8986,
      "Ġbeshinchi": 8987,
      "Ġtavsifi": 8988,
      "matini": 8989,
      "eks": 8990,
      "Ġ87": 8991,
      "Ġishda": 8992,
      "ĠMux": 8993,
      "hla": 8994,
      "Ġegalari": 8995,
      "Ġfiziologik": 8996,
      "lifa": 8997,
      "FA": 8998,
      "Ġblo": 8999,
      "niyem": 9000,
      "DAN": 9001,
      "Ġetishning": 9002,
      "ĠSaid": 9003,
      "py": 9004,
      "Ġkitoblar": 9005,
      "ĠEko": 9006,
      "nÑĭm": 9007,
      "Ġava": 9008,
      "Ġmaqsadda": 9009,
      "Ġmarka": 9010,
      "hom": 9011,
      "lyozma": 9012,
      "yom": 9013,
      "sgan": 9014,
      "ĠRasululloh": 9015,
      "zova": 9016,
      "Ġtig": 9017,
      "Ġmiqdorining": 9018,
      "Ġgumon": 9019,
      "ĠKal": 9020,
      "laymon": 9021,
      "Ġuglevo": 9022,
      "Ġintegratsiya": 9023,
      "dig": 9024,
      "dira": 9025,
      "Ġvaziyatni": 9026,
      "Ġqisqartirish": 9027,
      "Ġ111": 9028,
      "Ġberaman": 9029,
      "ĠHe": 9030,
      "Ġbajarishga": 9031,
      "Ġxotirjam": 9032,
      "Ġfoydalanadi": 9033,
      "150": 9034,
      "ĠSohibqiron": 9035,
      "ĠBas": 9036,
      "lmaganda": 9037,
      "zalar": 9038,
      "Ġvitamin": 9039,
      "Ġunchalik": 9040,
      "shir": 9041,
      "Ġxud": 9042,
      "toring": 9043,
      "zarbay": 9044,
      "Ġjarayoniga": 9045,
      "cheniya": 9046,
      "yladi": 9047,
      "qozon": 9048,
      "ĠNam": 9049,
      "Ġwith": 9050,
      "ixtiyor": 9051,
      "Ġasli": 9052,
      "Ġ81": 9053,
      "Mir": 9054,
      "ĠKomp": 9055,
      "Ġodatdagi": 9056,
      "ĠQara": 9057,
      "Ġmanfaatdor": 9058,
      "unt": 9059,
      "Ġqolgani": 9060,
      "Ġmushk": 9061,
      "ved": 9062,
      "Ġrejalashtirilgan": 9063,
      "Ġtayan": 9064,
      "Ġsayyo": 9065,
      "sinf": 9066,
      "ylak": 9067,
      "vokat": 9068,
      "Ġyuvish": 9069,
      "Ġbajarilishini": 9070,
      "atida": 9071,
      "Ġeslab": 9072,
      "lchami": 9073,
      "shaqqat": 9074,
      "Xi": 9075,
      "ĠADABIY": 9076,
      "Ġmehna": 9077,
      "Ġdavra": 9078,
      "Ġloyihasini": 9079,
      "Eslatib": 9080,
      "Ġmahsulotni": 9081,
      "Ġdarslik": 9082,
      "ravon": 9083,
      "etsi": 9084,
      "xtatib": 9085,
      "langanligi": 9086,
      "Ġ97": 9087,
      "Ġmintaqaviy": 9088,
      "shiriq": 9089,
      "ĠSanoat": 9090,
      "ĠChe": 9091,
      "Ġtexnikasi": 9092,
      "Ġnota": 9093,
      "ĠBadi": 9094,
      "Ġtarbiyaviy": 9095,
      "rek": 9096,
      "trof": 9097,
      "Ġhus": 9098,
      "Ġmaktub": 9099,
      "zlaridan": 9100,
      "rovka": 9101,
      "mna": 9102,
      "Ã¤": 9103,
      "layn": 9104,
      "Ġxolis": 9105,
      "Ġmem": 9106,
      "mlaka": 9107,
      "Ġ98": 9108,
      "Ġpanjara": 9109,
      "chim": 9110,
      "Ġotib": 9111,
      "Ġshaharlar": 9112,
      "ĠMag": 9113,
      "Ġhayotining": 9114,
      "ĠIssiq": 9115,
      "Ġqiziqar": 9116,
      "verdi": 9117,
      "Ġfirma": 9118,
      "atga": 9119,
      "quvchilarni": 9120,
      "fur": 9121,
      "Ġqoidalarini": 9122,
      "losi": 9123,
      "Ġtaro": 9124,
      "skoy": 9125,
      "moqchiman": 9126,
      "Ġfosfor": 9127,
      "Ġtaqsimo": 9128,
      "zani": 9129,
      "Ġistiqlol": 9130,
      "ĠAmu": 9131,
      "Ġmanbalar": 9132,
      "Ġmad": 9133,
      "qati": 9134,
      "Ġortidan": 9135,
      "ĠOdamlar": 9136,
      "Ġtura": 9137,
      "Ġbilmas": 9138,
      "noz": 9139,
      "ĠMCHJ": 9140,
      "Ġnuqtalar": 9141,
      "Ġtalaffuz": 9142,
      "Ġqarorlar": 9143,
      "Ġhaqli": 9144,
      "Ax": 9145,
      "Ġtushish": 9146,
      "Ġstu": 9147,
      "Ġdavomiy": 9148,
      "Ġxaba": 9149,
      "Ġhududlarida": 9150,
      "ĠUlarga": 9151,
      "ĠVata": 9152,
      "Ġprogno": 9153,
      "Ġste": 9154,
      "yobga": 9155,
      "ĠIS": 9156,
      "ĠFA": 9157,
      "rtaga": 9158,
      "ell": 9159,
      "Ġagrega": 9160,
      "ĠEs": 9161,
      "des": 9162,
      "tishini": 9163,
      "ĠYog": 9164,
      "hna": 9165,
      "Ġfolk": 9166,
      "Ġtermo": 9167,
      "Ġulamo": 9168,
      "jahon": 9169,
      "ĠÐºÐµ": 9170,
      "Ġsharhi": 9171,
      "Ġnaqd": 9172,
      "ĠBinobarin": 9173,
      "Ġongli": 9174,
      "tido": 9175,
      "Ġadabiyotlar": 9176,
      "Ġtayoq": 9177,
      "Ġyerosti": 9178,
      "Ġbiro": 9179,
      "rsata": 9180,
      "rami": 9181,
      "Ġbilasiz": 9182,
      "Ġhunarmand": 9183,
      "Ġkap": 9184,
      "Nega": 9185,
      "ĠÐĽ": 9186,
      "rilar": 9187,
      "hisob": 9188,
      "Ġyoshgacha": 9189,
      "Ġyarmi": 9190,
      "rimni": 9191,
      "ĠÂ«Â«": 9192,
      "ijtimoiy": 9193,
      "tkaza": 9194,
      "prog": 9195,
      "Ġsolgan": 9196,
      "tarilib": 9197,
      "Ġkorxonaning": 9198,
      "Ġxavfsizligini": 9199,
      "rlangan": 9200,
      "Ġtayyorlashda": 9201,
      "Vazirlar": 9202,
      "XX": 9203,
      "Ġyilgacha": 9204,
      "Ġnuqtada": 9205,
      "lmadim": 9206,
      "tkazadi": 9207,
      "Ġmavsu": 9208,
      "jaliklari": 9209,
      "ILI": 9210,
      "zaning": 9211,
      "Ġtomonda": 9212,
      "Ð·a": 9213,
      "Ġmisollar": 9214,
      "zaga": 9215,
      "Ġtilidagi": 9216,
      "llanilishi": 9217,
      "ux": 9218,
      "dalari": 9219,
      "chasiga": 9220,
      "Ġyozing": 9221,
      "pga": 9222,
      "Ġsilliq": 9223,
      "ngmi": 9224,
      "sizligi": 9225,
      "ekto": 9226,
      "Ġtashkilo": 9227,
      "ĠVI": 9228,
      "Ġshubhasiz": 9229,
      "yotib": 9230,
      "turasi": 9231,
      "ĠUrug": 9232,
      "Ga": 9233,
      "zarbayjon": 9234,
      "Ġmikroorganizm": 9235,
      "are": 9236,
      "Ġmajmuasi": 9237,
      "Ġ107": 9238,
      "Ġiztiro": 9239,
      "suro": 9240,
      "Ġchida": 9241,
      "ĠAniq": 9242,
[...]
